{"string_to_tokens": {"<padding>": 0, "<begin_of_sentence>": 1, "<end_of_sentence>": 2, "<unknown>": 3, "</w>": 70, "a": 5, "b": 6, "c": 7, "d": 8, "e": 9, "f": 10, "g": 11, "h": 12, "i": 13, "j": 14, "k": 15, "l": 16, "m": 17, "n": 18, "o": 19, "p": 20, "q": 21, "r": 22, "s": 23, "t": 24, "u": 25, "v": 26, "w": 27, "x": 28, "y": 29, "z": 30, "0": 31, "1": 32, "2": 33, "3": 34, "4": 35, "5": 36, "6": 37, "7": 38, "8": 39, "9": 40, "!": 41, "@": 42, "#": 43, "$": 44, "%": 45, "^": 46, "&": 47, "*": 48, "(": 49, ")": 50, "_": 51, "+": 52, "-": 53, "=": 54, "[": 55, "]": 56, "{": 57, "}": 58, "|": 59, ";": 60, ":": 61, ",": 62, ".": 63, "<": 64, ">": 65, "?": 66, "/": 67, "</": 68, "w>": 69, "e</w>": 71, "d</w>": 72, "th": 73, ".</w>": 74, "an": 75, "t</w>": 76, "y</w>": 77, "er": 78, "s</w>": 79, "o</w>": 80, "in": 81, "ar": 82, "and</w>": 83, "ed</w>": 84, ",</w>": 85, "he</w>": 86, "a</w>": 87, "'</w>": 88, "to</w>": 89, "on": 90, "ou": 91, "en": 92, "the</w>": 93, "th'</w>": 94, "the": 95, "r</w>": 96, "li": 97, "om": 98, "wa": 99, "sa": 100, "she</w>": 101, "ll": 102, "re": 103, "ha": 104, "ere</w>": 105, "er</w>": 106, "hi": 107, "!</w>": 108, "they</w>": 109, "were</w>": 110, "lo": 111, "st": 112, "it</w>": 113, "g</w>": 114, "ti": 115, "id": 116, "le": 117, "w</w>": 118, "ma": 119, "\"</w>": 120, "la": 121, "was</w>": 122, "at</w>": 123, "s.</w>": 124, "en</w>": 125, "ck": 126, "wi": 127, "or": 128, "y.</w>": 129, "arr</w>": 130, "on</w>": 131, "in</w>": 132, "d.</w>": 133, "m</w>": 134, "e.</w>": 135, "no": 136, "f</w>": 137, "ch": 138, "ri": 139, "to": 140, "bu": 141, "da": 142, "ll</w>": 143, "gh": 144, "th</w>": 145, "el": 146, "sh": 147, "it": 148, "ver": 149, "tim": 150, "ly</w>": 151, "ing</w>": 152, "y,</w>": 153, "an</w>": 154, "in'</w>": 155, "be": 156, "mi": 157, "ok": 158, "de": 159, "his</w>": 160, "ar</w>": 161, "with</w>": 162, "un": 163, "do": 164, "of</w>": 165, "om</w>": 166, "be</w>": 167, "ld</w>": 168, "'s</w>": 169, "ve</w>": 170, "fo": 171, "so</w>": 172, "as": 173, "up": 174, "ce</w>": 175, "ke</w>": 176, "that</w>": 177, "l</w>": 178, "ro": 179, "se": 180, "you": 181, "but</w>": 182, "one</w>": 183, "pp": 184, "ra": 185, "le</w>": 186, "ca": 187, "said": 188, "tt": 189, "had</w>": 190, "ba": 191, "very</w>": 192, "oun": 193, "her</w>": 194, "harr</w>": 195, "me</w>": 196, "wh": 197, "ne": 198, "lily</w>": 199, "bo": 200, "ho": 201, "ir": 202, "sp": 203, "e,</w>": 204, "for</w>": 205, "na": 206, "ing": 207, "ur": 208, "pla": 209, "me": 210, "we": 211, "ked</w>": 212, "my</w>": 213, "i</w>": 214, "mo": 215, "ck</w>": 216, "said,</w>": 217, "wn": 218, "es</w>": 219, "er.</w>": 220, "ould</w>": 221, "som": 222, "not</w>": 223, "day,</w>": 224, "ted</w>": 225, "ry</w>": 226, ".\"</w>": 227, "saw</w>": 228, "t.</w>": 229, "s!</w>": 230, "st</w>": 231, "go": 232, "ye</w>": 233, "car": 234, "ge": 235, "rea": 236, "ir</w>": 237, "happ": 238, "ta": 239, "k</w>": 240, "'t</w>": 241, "!\"</w>": 242, "ch</w>": 243, "ea": 244, "di": 245, "once</w>": 246, "ther</w>": 247, "jo": 248, "s,</w>": 249, "mom": 250, "fu": 251, "co": 252, "look": 253, "ved</w>": 254, "you</w>": 255, "d,</w>": 256, "ound</w>": 257, "ent</w>": 258, "lly</w>": 259, "make</w>": 260, "ke": 261, "fri": 262, "dd": 263, "te": 264, "down": 265, "is</w>": 266, "ci": 267, "bi": 268, "frien": 269, "se</w>": 270, "upon</w>": 271, "pi": 272, "their</w>": 273, "si": 274, "p</w>": 275, "dec": 276, "ght": 277, "ga": 278, "smi": 279, "out</w>": 280, "ver</w>": 281, "fin": 282, "have</w>": 283, "al": 284, "wan": 285, "fr": 286, "can</w>": 287, "par": 288, "fe": 289, "as</w>": 290, "thar</w>": 291, "fa": 292, "time,</w>": 293, "pu": 294, "him</w>": 295, "wha": 296, "went</w>": 297, "com": 298, "med</w>": 299, "op": 300, "m.</w>": 301, "ye": 302, "all</w>": 303, "?\"</w>": 304, "fan": 305, "when</w>": 306, "we</w>": 307, "lil": 308, "sid": 309, "go</w>": 310, "tre": 311, "ttle</w>": 312, "fun": 313, "ex": 314, "n't</w>": 315, "up</w>": 316, "su": 317, "ed.</w>": 318, "friend": 319, "from</w>": 320, "mother</w>": 321, "gr": 322, "and": 323, "what</w>": 324, "mer": 325, "some": 326, "little</w>": 327, "wee</w>": 328, "tom</w>": 329, "it.</w>": 330, "led</w>": 331, "dear</w>": 332, "arr": 333, "wor": 334, "um": 335, "hel": 336, "named</w>": 337, "merry</w>": 338, "ben</w>": 339, "are</w>": 340, "mom</w>": 341, "ght</w>": 342, "star": 343, "there</w>": 344, "fi": 345, "loved</w>": 346, "de</w>": 347, "blo": 348, "fel": 349, "shi": 350, "day</w>": 351, "po": 352, "like</w>": 353, "felt</w>": 354, "ts</w>": 355, "them</w>": 356, "ys</w>": 357, "looked</w>": 358, "der": 359, "mu": 360, "could</w>": 361, "ghty</w>": 362, "he": 363, "pa": 364, "ard": 365, "so": 366, "cle": 367, "ing.</w>": 368, "\u00e2\u20ac": 369, "mighty</w>": 370, "lu": 371, "would</w>": 372, "big</w>": 373, "down</w>": 374, "x</w>": 375, "play": 376, "t's</w>": 377, "sai": 378, "some</w>": 379, "ce": 380, "gir": 381, ",\"</w>": 382, "awa": 383, "ore</w>": 384, "toge": 385, "or</w>": 386, "ge</w>": 387, "back</w>": 388, "ared</w>": 389, "new</w>": 390, "see</w>": 391, "?</w>": 392, "wat": 393, "started</w>": 394, "ld": 395, "did</w>": 396, "gg": 397, "ran</w>": 398, "someth": 399, "y!</w>": 400, "ru": 401, "sh</w>": 402, "made</w>": 403, "decl": 404, "around</w>": 405, "smiled</w>": 406, "came</w>": 407, "ful</w>": 408, "then</w>": 409, "ab": 410, "pr": 411, "bli": 412, "hu": 413, "las": 414, "said.</w>": 415, "play</w>": 416, "gh</w>": 417, "ber": 418, "fanci": 419, "ni": 420, "wanted</w>": 421, "fancied</w>": 422, "do</w>": 423, "time</w>": 424, "timmy</w>": 425, "pe": 426, "ard</w>": 427, "aga": 428, "got</w>": 429, "av": 430, "ow": 431, "than": 432, "k.</w>": 433, "asked</w>": 434, "say": 435, "sie</w>": 436, "who</w>": 437, "ok</w>": 438, "put</w>": 439, "bir": 440, "is": 441, "jolly</w>": 442, "declared</w>": 443, "said</w>": 444, "cy</w>": 445, "found</w>": 446, "happy</w>": 447, "in.</w>": 448, "side</w>": 449, "girl</w>": 450, "lassie</w>": 451, "ure</w>": 452, "togeth": 453, "by</w>": 454, "en.</w>": 455, "decid": 456, "ever": 457, "wal": 458, "ddy</w>": 459, "pped</w>": 460, "gi": 461, "out": 462, "te</w>": 463, "liked</w>": 464, "ann": 465, "oth": 466, "qu": 467, "y?</w>": 468, "bar": 469, "ent": 470, "cou": 471, "decided</w>": 472, "re.</w>": 473, "le.</w>": 474, "sav": 475, "bra": 476, "did": 477, "mommy</w>": 478, "spe": 479, "l.</w>": 480, "scar": 481, "al</w>": 482, "ast</w>": 483, "get</w>": 484, "kno": 485, "hom": 486, "ju": 487, "che": 488, "vy?</w>": 489, "savvy?</w>": 490, "oud</w>": 491, "ja": 492, "happy.</w>": 493, "help": 494, "arr!</w>": 495, "clo": 496, "tri": 497, "sar": 498, "every": 499, "sti": 500, "feel": 501, "lled</w>": 502, "g.</w>": 503, "don": 504, "goo": 505, "varr</w>": 506, "will</w>": 507, "exc": 508, "y's</w>": 509, "man</w>": 510, "ways</w>": 511, "af": 512, "on,</w>": 513, "man": 514, "tim</w>": 515, "sed</w>": 516, "sor": 517, "pre": 518, "too</w>": 519, "use</w>": 520, "ind</w>": 521, "lily.</w>": 522, "ce.</w>": 523, "yer</w>": 524, "flo": 525, "i'": 526, "always</w>": 527, "took</w>": 528, "this</w>": 529, "bb": 530, "n</w>": 531, "find</w>": 532, "too": 533, "excit": 534, "about</w>": 535, "didn't</w>": 536, "mak": 537, "hand</w>": 538, "end</w>": 539, "gre": 540, "\"i</w>": 541, "spo": 542, "no</w>": 543, "speci": 544, "en,</w>": 545, "br": 546, "blow</w>": 547, "tom": 548, "sta": 549, "whi": 550, "ed,</w>": 551, "lau": 552, "it's</w>": 553, "ck.</w>": 554, "down!</w>": 555, "shiver</w>": 556, "mey!</w>": 557, "blimey!</w>": 558, "b</w>": 559, "ned</w>": 560, "how</w>": 561, "bers!</w>": 562, "ched</w>": 563, "timbers!</w>": 564, "over</w>": 565, "ll.</w>": 566, "cu": 567, "bri": 568, "sudd": 569, "ave</w>": 570, "friends.</w>": 571, "beard": 572, "thing": 573, "for": 574, "lan": 575, "old</w>": 576, "knew</w>": 577, "fun</w>": 578, "every</w>": 579, "ly,</w>": 580, "tell</w>": 581, "let's</w>": 582, "barna": 583, "sudden": 584, "just</w>": 585, "lor": 586, "ny</w>": 587, "tha": 588, "ev": 589, "aft": 590, "don't</w>": 591, "care": 592, "lear": 593, "llo": 594, "fre": 595, "ldn't</w>": 596, "if</w>": 597, "sto": 598, "sk": 599, "hand": 600, "sho": 601, "ump": 602, "mar": 603, "ani": 604, "each</w>": 605, "anna</w>": 606, "iny</w>": 607, "of": 608, "treas": 609, "sam</w>": 610, "sun": 611, "ink</w>": 612, "gged</w>": 613, "cre": 614, "laugh": 615, "se.</w>": 616, "more</w>": 617, "fl": 618, "on.</w>": 619, "ss</w>": 620, "again.</w>": 621, "hea": 622, "lon": 623, "er,</w>": 624, "him.</w>": 625, "es.</w>": 626, "into</w>": 627, "under": 628, "zz": 629, "ed": 630, "cked</w>": 631, "ad": 632, "come</w>": 633, "told</w>": 634, "tru": 635, "max</w>": 636, "hou": 637, "them.</w>": 638, "ad</w>": 639, "heard</w>": 640, "fancy</w>": 641, "ho</w>": 642, "tried</w>": 643, "gra": 644, "ure": 645, "ep</w>": 646, "says.</w>": 647, "les.</w>": 648, "boy</w>": 649, "cause</w>": 650, "her.</w>": 651, "t,</w>": 652, "str": 653, "sel": 654, "laddy</w>": 655, "because</w>": 656, "special</w>": 657, "crea": 658, "ct": 659, "ought</w>": 660, "couldn't</w>": 661, "want</w>": 662, "por": 663, "suddenly,</w>": 664, "i'm</w>": 665, "hugged</w>": 666, "played</w>": 667, "dog</w>": 668, "st.</w>": 669, "many</w>": 670, "any": 671, "tw": 672, "men</w>": 673, "flow": 674, "et</w>": 675, "dead</w>": 676, "exp": 677, "sea</w>": 678, "im": 679, "ous</w>": 680, "ened</w>": 681, "somethin'</w>": 682, "something</w>": 683, "tten</w>": 684, "mom.</w>": 685, "aske": 686, "w.</w>": 687, "ound.</w>": 688, "know</w>": 689, "park.</w>": 690, "anima": 691, "away.</w>": 692, "makin'</w>": 693, "yo</w>": 694, "ing,</w>": 695, "unti": 696, "shed</w>": 697, "fresh</w>": 698, "proud</w>": 699, "jack</w>": 700, "bea": 701, "red</w>": 702, "ster": 703, "until</w>": 704, "smile": 705, "our</w>": 706, "thank</w>": 707, "bett": 708, "ds</w>": 709, "gro": 710, "day.</w>": 711, "dy</w>": 712, "ls</w>": 713, "outside</w>": 714, "learned</w>": 715, "ant</w>": 716, "even</w>": 717, "fun.</w>": 718, "timm": 719, "owed</w>": 720, "yes,</w>": 721, "ang": 722, "together.</w>": 723, "run": 724, "much</w>": 725, "t!</w>": 726, "side.</w>": 727, "tur": 728, "bla": 729, "stor": 730, "lend</w>": 731, "then,</w>": 732, "can": 733, "urp": 734, "hur": 735, "ced</w>": 736, "away</w>": 737, "ry": 738, "ther": 739, "lla": 740, "its</w>": 741, "\u00e2\u20ac\u0153": 742, "ch.</w>": 743, "help</w>": 744, "op.</w>": 745, "ry.</w>": 746, "ling</w>": 747, "sara</w>": 748, "g,</w>": 749, "too.</w>": 750, "thanked</w>": 751, "thin": 752, "lice</w>": 753, "her": 754, "\u00e2\u20ac</w>": 755, "everyone</w>": 756, "that's</w>": 757, "mia</w>": 758, "fle": 759, "full</w>": 760, "list": 761, "room": 762, "avast</w>": 763, "ss": 764, "lt</w>": 765, "rot</w>": 766, "sw": 767, "ough</w>": 768, "reck": 769, "lots</w>": 770, "tra": 771, "your</w>": 772, "ly.</w>": 773, "plan": 774, "p.</w>": 775, "joh": 776, "other</w>": 777, "otharr</w>": 778, "crew</w>": 779, "sli": 780, "pt</w>": 781, "playing</w>": 782, "ff": 783, "cover": 784, "anch": 785, "friends</w>": 786, "en!</w>": 787, "still</w>": 788, "home.</w>": 789, "wei": 790, "ty": 791, "both</w>": 792, "love</w>": 793, "fore": 794, "ce!</w>": 795, "parrot</w>": 796, "hat": 797, "pho": 798, "blow": 799, "car</w>": 800, "says,</w>": 801, "con": 802, "peop": 803, "oka": 804, "fami": 805, "ske": 806, "lived</w>": 807, "feel</w>": 808, "nin": 809, "lily's</w>": 810, "sad.</w>": 811, "cle</w>": 812, "saf": 813, "\"yes,</w>": 814, "surp": 815, "surpri": 816, "llage</w>": 817, "wn</w>": 818, "main": 819, "sara": 820, "weigh</w>": 821, "ball</w>": 822, "hook": 823, "mon": 824, "oo": 825, "back": 826, "anchor</w>": 827, "bird</w>": 828, "adv": 829, "gard": 830, "salt</w>": 831, "derin'</w>": 832, "mb": 833, "covered</w>": 834, "thunder": 835, "won": 836, "two</w>": 837, "toy": 838, "bear</w>": 839, "ist</w>": 840, "ons!</w>": 841, "r!</w>": 842, "kit": 843, "ches!</w>": 844, "ures</w>": 845, "ye!</w>": 846, "me!</w>": 847, "hook!</w>": 848, "cles!</w>": 849, "st!</w>": 850, "tales.</w>": 851, "sling</w>": 852, "thundering</w>": 853, "batten</w>": 854, "hatches!</w>": 855, "typho": 856, "typhoons!</w>": 857, "blister": 858, "blisterin'</w>": 859, "barnacles!</w>": 860, "cleave</w>": 861, "briske": 862, "brisket!</w>": 863, "compo": 864, "blows!</w>": 865, "flew</w>": 866, "ho.</w>": 867, "floun": 868, "flounderin'</w>": 869, "nincompo": 870, "nincompoop.</w>": 871, "arrr!</w>": 872, "tree</w>": 873, "hoist</w>": 874, "tch</w>": 875, "mizz": 876, "mizzen!</w>": 877, "splice</w>": 878, "mainbra": 879, "mainbrace!</w>": 880, "zed</w>": 881, "called</w>": 882, "tiny</w>": 883, "kept</w>": 884, "ava": 885, "inside</w>": 886, "ry,</w>": 887, "black": 888, "ben": 889, "ft</w>": 890, "off</w>": 891, "explor": 892, "per": 893, "good</w>": 894, "cra": 895, "ve": 896, "sink</w>": 897, "momm": 898, "ve.</w>": 899, "yed</w>": 900, "ple": 901, "prett": 902, "carefu": 903, "take</w>": 904, "him": 905, "it,</w>": 906, "loud</w>": 907, "cks</w>": 908, "one.</w>": 909, "you,</w>": 910, "pillage</w>": 911, "oned</w>": 912, "dra": 913, "nex": 914, "advent": 915, "thre": 916, "beard!</w>": 917, "blackbeard": 918, "blackbeard's</w>": 919, "walked</w>": 920, "ac": 921, "no,</w>": 922, "qui": 923, "yarr!</w>": 924, "avast!</w>": 925, "min": 926, "fir": 927, "ice</w>": 928, "cli": 929, "x.</w>": 930, "gu": 931, "war": 932, "bro": 933, "should</w>": 934, "thought</w>": 935, "reckoned</w>": 936, "laughed</w>": 937, "swa": 938, "ma</w>": 939, "grand": 940, "nice</w>": 941, "also</w>": 942, "du": 943, "win": 944, "butt": 945, "try</w>": 946, "\u00e2\u20ac\u2122": 947, "ght.</w>": 948, "opened</w>": 949, "why</w>": 950, "f.</w>": 951, "fine</w>": 952, "leave</w>": 953, "next</w>": 954, "blu": 955, "look</w>": 956, "or.</w>": 957, "room.</w>": 958, "llow</w>": 959, "smiled.</w>": 960, "handed</w>": 961, "cat</w>": 962, "keep</w>": 963, "box</w>": 964, "kes</w>": 965, "water</w>": 966, "jump": 967, "picked</w>": 968, "good": 969, "dad</w>": 970, "ide</w>": 971, "sma": 972, "noti": 973, "may": 974, "where</w>": 975, "now</w>": 976, "gave</w>": 977, "has</w>": 978, "foo": 979, "ty</w>": 980, "pleas": 981, "kind</w>": 982, "cha": 983, "\"let's</w>": 984, "king</w>": 985, "long</w>": 986, "h</w>": 987, "fly</w>": 988, "now": 989, "fina": 990, "beau": 991, "grog</w>": 992, "lou": 993, "gs</w>": 994, "est</w>": 995, "people</w>": 996, "barnacle</w>": 997, "ship": 998, "\"you</w>": 999, "mor": 1000, "pict": 1001, "john</w>": 1002, "ter": 1003, "scared.</w>": 1004, "color": 1005, "reme": 1006, "pli": 1007, "dre": 1008, "tree.</w>": 1009, "ars</w>": 1010, "more.</w>": 1011, "maybe</w>": 1012, "you.</w>": 1013, "ange</w>": 1014, "vo": 1015, "tow": 1016, "never</w>": 1017, "nevarr</w>": 1018, "chi": 1019, "cur": 1020, "brea": 1021, "enjo": 1022, "things</w>": 1023, "thin's</w>": 1024, "lucy</w>": 1025, "tou": 1026, "ar.</w>": 1027, "port": 1028, "ent.</w>": 1029, "idea": 1030, "lot</w>": 1031, "end.</w>": 1032, "ld.</w>": 1033, "way</w>": 1034, "\"thank</w>": 1035, "deli": 1036, "import": 1037, "after</w>": 1038, "aftarr</w>": 1039, "up.</w>": 1040, "so,</w>": 1041, "need</w>": 1042, "app": 1043, "ks</w>": 1044, "dump": 1045, "noticed</w>": 1046, "excited</w>": 1047, "ate</w>": 1048, "things.</w>": 1049, "dumps</w>": 1050, "sad</w>": 1051, "sha": 1052, "shou": 1053, "th.</w>": 1054, "tab": 1055, "\"no,</w>": 1056, "house.</w>": 1057, "mom,</w>": 1058, "careful</w>": 1059, "cri": 1060, "re</w>": 1061, "repli": 1062, "ama": 1063, "shiny</w>": 1064, "sun</w>": 1065, "noi": 1066, "wind</w>": 1067, "showed</w>": 1068, "soon</w>": 1069, "show</w>": 1070, "\"i'm</w>": 1071, "swe": 1072, "goodb": 1073, "sorry</w>": 1074, "brok": 1075, "ke.</w>": 1076, "let</w>": 1077, "ter</w>": 1078, "spy</w>": 1079, "spot</w>": 1080, "squ": 1081, "ss.</w>": 1082, "big,</w>": 1083, "bun": 1084, "bbed</w>": 1085, "lls</w>": 1086, "hurt</w>": 1087, "reali": 1088, "gry.</w>": 1089, "arm": 1090, "ds.</w>": 1091, "treasure</w>": 1092, "jan": 1093, "cook": 1094, "beauti": 1095, "curi": 1096, "em": 1097, "asked.</w>": 1098, "animals</w>": 1099, ":</w>": 1100, "watched</w>": 1101, "hard</w>": 1102, "cal": 1103, "\"what</w>": 1104, "great</w>": 1105, "\".</w>": 1106, "been</w>": 1107, "dro": 1108, "stopped</w>": 1109, "lly,</w>": 1110, "it!</w>": 1111, "clos": 1112, "mum</w>": 1113, "sure</w>": 1114, "became</w>": 1115, "ers</w>": 1116, "arrs</w>": 1117, "ovarr</w>": 1118, "le,</w>": 1119, "stay</w>": 1120, "brave</w>": 1121, "wonder": 1122, "yin'</w>": 1123, "toys.</w>": 1124, "dan": 1125, "vi": 1126, "y.\"</w>": 1127, "other.</w>": 1128, "family</w>": 1129, "book": 1130, "et.</w>": 1131, "ers.</w>": 1132, "shore</w>": 1133, "blue</w>": 1134, "pe</w>": 1135, "fro": 1136, "ard.</w>": 1137, "ep": 1138, "stu": 1139, "me.</w>": 1140, "c</w>": 1141, "shiver": 1142, "explore</w>": 1143, "y!\"</w>": 1144, "scur": 1145, "\"he": 1146, "s.\"</w>": 1147, "shin": 1148, "give</w>": 1149, "shar": 1150, "walk</w>": 1151, "toy</w>": 1152, "friend.</w>": 1153, "together</w>": 1154, "togetharr</w>": 1155, "mou": 1156, "able</w>": 1157, "ph": 1158, "ummy</w>": 1159, "important</w>": 1160, "ground.</w>": 1161, "ct</w>": 1162, "play.</w>": 1163, "help.</w>": 1164, "und": 1165, "i'll</w>": 1166, "\"we</w>": 1167, "cab": 1168, "only</w>": 1169, "dded</w>": 1170, "end": 1171, "grabbed</w>": 1172, "park</w>": 1173, "ves</w>": 1174, "inside.</w>": 1175, "pretty</w>": 1176, "back.</w>": 1177, "garden.</w>": 1178, "pon": 1179, "sh.</w>": 1180, "te.</w>": 1181, "tal": 1182, "timmy.</w>": 1183, "smar": 1184, "clean</w>": 1185, "happen": 1186, "see": 1187, "shel": 1188, "am</w>": 1189, "gla": 1190, "bob</w>": 1191, "one": 1192, "idea.</w>": 1193, "coo": 1194, "need": 1195, "sky.</w>": 1196, "again": 1197, "vin'</w>": 1198, "ving</w>": 1199, "sna": 1200, "ong.</w>": 1201, "k,</w>": 1202, "\"it's</w>": 1203, "land</w>": 1204, "\"can</w>": 1205, "rough</w>": 1206, "fini": 1207, "prin": 1208, "ous.</w>": 1209, "se,</w>": 1210, "scared</w>": 1211, "shiverin</w>": 1212, "helped</w>": 1213, "ure.</w>": 1214, "thin'</w>": 1215, "thing</w>": 1216, "ite</w>": 1217, "gras": 1218, "ong</w>": 1219, "sue</w>": 1220, "beg": 1221, "les</w>": 1222, "do.</w>": 1223, "small</w>": 1224, "does</w>": 1225, "treasures</w>": 1226, "sees</w>": 1227, "pret": 1228, "din": 1229, "cla": 1230, "fore</w>": 1231, "before</w>": 1232, "reached</w>": 1233, "realized</w>": 1234, "jumped</w>": 1235, "pie": 1236, "pro": 1237, "ow,</w>": 1238, "while</w>": 1239, "yes</w>": 1240, "finest</w>": 1241, "best</w>": 1242, "port</w>": 1243, "ts.</w>": 1244, "water.</w>": 1245, "leav": 1246, "glad</w>": 1247, "again</w>": 1248, "happi": 1249, "ents</w>": 1250, "toys</w>": 1251, "'re</w>": 1252, "fell</w>": 1253, "calm</w>": 1254, "mber": 1255, "swi": 1256, "ll,</w>": 1257, "three</w>": 1258, "cont": 1259, "\"w": 1260, "home,</w>": 1261, "sorry,</w>": 1262, "woo": 1263, "safe</w>": 1264, "used</w>": 1265, "el</w>": 1266, "butter": 1267, "outside.</w>": 1268, "magi": 1269, "excited.</w>": 1270, "sarah</w>": 1271, "fast</w>": 1272, "time.</w>": 1273, "wait</w>": 1274, "angry.</w>": 1275, "remember": 1276, "l,</w>": 1277, "really</w>": 1278, "self</w>": 1279, "dri": 1280, "ben.</w>": 1281, "and.</w>": 1282, "sometim": 1283, "cooki": 1284, "nodded</w>": 1285, "ji": 1286, "looks</w>": 1287, "car.</w>": 1288, "nay</w>": 1289, "through</w>": 1290, "nois": 1291, "hun": 1292, "says</w>": 1293, "better.</w>": 1294, "prom": 1295, "strange</w>": 1296, "ered</w>": 1297, "amaz": 1298, "began</w>": 1299, "jane</w>": 1300, "look,</w>": 1301, "ped</w>": 1302, "dar": 1303, "fair</w>": 1304, "than</w>": 1305, "ght,</w>": 1306, "pain": 1307, "cor": 1308, "ful.</w>": 1309, "lila</w>": 1310, "read</w>": 1311, "ted.</w>": 1312, "anymore.</w>": 1313, "mate": 1314, "tom.</w>": 1315, "kin": 1316, "pap": 1317, "al.</w>": 1318, "foll": 1319, "hug</w>": 1320, "cabin</w>": 1321, "okay,</w>": 1322, "pira": 1323, "less": 1324, "anna": 1325, "wait": 1326, "eat</w>": 1327, "near</w>": 1328, "waved</w>": 1329, "spoi": 1330, "matey</w>": 1331, "watch</w>": 1332, "st,</w>": 1333, "goodbye</w>": 1334, "friend</w>": 1335, "dais": 1336, "timmy's</w>": 1337, "tast": 1338, "je": 1339, "sorry.</w>": 1340, "m,</w>": 1341, "youn": 1342, "cks.</w>": 1343, "our": 1344, "-</w>": 1345, "bunny</w>": 1346, "itt": 1347, "ball.</w>": 1348, "bui": 1349, "word</w>": 1350, "bit</w>": 1351, "hopped</w>": 1352, "ge.</w>": 1353, "low": 1354, "climb": 1355, "high</w>": 1356, "lily,</w>": 1357, "box.</w>": 1358, "cro": 1359, "ready</w>": 1360, "home</w>": 1361, "she": 1362, "agre": 1363, "ble": 1364, "beh": 1365, "sme": 1366, "windo": 1367, "ons</w>": 1368, "dad.</w>": 1369, "de.</w>": 1370, "lie": 1371, "rabb": 1372, "feast</w>": 1373, "a.</w>": 1374, "daddy</w>": 1375, "kitch": 1376, "wished</w>": 1377, "likes</w>": 1378, "may</w>": 1379, "kin'</w>": 1380, "ely</w>": 1381, "ir.</w>": 1382, "you.\"</w>": 1383, "down.</w>": 1384, "ryin'</w>": 1385, "replied,</w>": 1386, "years</w>": 1387, "listen</w>": 1388, "touch</w>": 1389, "turned</w>": 1390, "lor</w>": 1391, "pick</w>": 1392, "k!</w>": 1393, "\"look,</w>": 1394, "joe</w>": 1395, "at": 1396, "bright</w>": 1397, "\u00e2\u20ac\u2122s</w>": 1398, "cann": 1399, "around.</w>": 1400, "dog.</w>": 1401, "wr": 1402, "\"don't</w>": 1403, "open</w>": 1404, "cannon</w>": 1405, "seas</w>": 1406, "young</w>": 1407, "sle": 1408, "catch</w>": 1409, "held</w>": 1410, "door</w>": 1411, "sky</w>": 1412, "creat": 1413, "e!\"</w>": 1414, "remembered</w>": 1415, "story</w>": 1416, "beautiful</w>": 1417, "set</w>": 1418, "umb": 1419, "animal": 1420, "self.</w>": 1421, "cast": 1422, "il</w>": 1423, "ver.</w>": 1424, "place</w>": 1425, "eyes</w>": 1426, "ined</w>": 1427, "high": 1428, "drea": 1429, "right</w>": 1430, "tu": 1431, "can't</w>": 1432, "tommy</w>": 1433, "arri": 1434, "sat</w>": 1435, "ce,</w>": 1436, "ffer": 1437, "s!\"</w>": 1438, "girl.</w>": 1439, "enjoyed</w>": 1440, "finally,</w>": 1441, "flu": 1442, "ste": 1443, "you're</w>": 1444, "friend,</w>": 1445, "re,</w>": 1446, "truck</w>": 1447, "delici": 1448, "lady</w>": 1449, "own": 1450, "ses</w>": 1451, "ine</w>": 1452, "behind</w>": 1453, "noise.</w>": 1454, "fla": 1455, "warm</w>": 1456, "inu": 1457, "dir": 1458, "continu": 1459, "n.</w>": 1460, "ship's</w>": 1461, "e.\"</w>": 1462, "followed</w>": 1463, "differ": 1464, "oke</w>": 1465, "green</w>": 1466, "gent": 1467, "noise</w>": 1468, "hear</w>": 1469, "out.</w>": 1470, "underst": 1471, "feelin'</w>": 1472, "feeling</w>": 1473, "buy</w>": 1474, "asked,</w>": 1475, "mean</w>": 1476, "an.</w>": 1477, "vide</w>": 1478, "ed!</w>": 1479, "pirate": 1480, "\"wow,</w>": 1481, "goin'</w>": 1482, "going</w>": 1483, "lly.</w>": 1484, "know": 1485, "!\u00e2\u20ac</w>": 1486, "teddy</w>": 1487, "truth</w>": 1488, "stea": 1489, "yellow</w>": 1490, "squir": 1491, "being</w>": 1492, "bein'</w>": 1493, "\"that's</w>": 1494, "needed</w>": 1495, "birds</w>": 1496, "quick": 1497, "worked</w>": 1498, "kid": 1499, "mm": 1500, "ning</w>": 1501, "hands</w>": 1502, "cket</w>": 1503, "coun": 1504, "seen</w>": 1505, "parents</w>": 1506, "pup": 1507, "pres": 1508, ".\u00e2\u20ac</w>": 1509, "filled</w>": 1510, "sometimes</w>": 1511, "wel": 1512, "cti": 1513, "ear": 1514, "squirre": 1515, "boat</w>": 1516, "les!</w>": 1517, "ey</w>": 1518, "ice.</w>": 1519, "y?\"</w>": 1520, "most</w>": 1521, "room</w>": 1522, "tr": 1523, "sn't</w>": 1524, "smile</w>": 1525, "pirate!</w>": 1526, "es,</w>": 1527, "gett": 1528, "backs!</w>": 1529, "voice</w>": 1530, "care</w>": 1531, "ho!</w>": 1532, "continued</w>": 1533, "cand": 1534, "plank!</w>": 1535, "share</w>": 1536, "divide</w>": 1537, "tales!</w>": 1538, "sally</w>": 1539, "spoils</w>": 1540, "someone</w>": 1541, "wants</w>": 1542, "fru": 1543, "bird.</w>": 1544, "cry.</w>": 1545, "\"hello": 1546, "\"it</w>": 1547, "run</w>": 1548, "looking</w>": 1549, "sailor</w>": 1550, "tly</w>": 1551, "scurry</w>": 1552, "ask</w>": 1553, "soft</w>": 1554, "ty.</w>": 1555, "fav": 1556, "sig": 1557, "daisy</w>": 1558, "ever</w>": 1559, "evarr</w>": 1560, "bow": 1561, "stre": 1562, "finally</w>": 1563, "safe.</w>": 1564, "yes.</w>": 1565, "vis": 1566, "ces</w>": 1567, "happily</w>": 1568, "e!</w>": 1569, "grandma</w>": 1570, "mommy,</w>": 1571, "spyin'</w>": 1572, "face.</w>": 1573, "ised</w>": 1574, "spar": 1575, "any</w>": 1576, "poin": 1577, "stayed</w>": 1578, "smile.</w>": 1579, "dinn": 1580, "sed.</w>": 1581, "pen": 1582, "happened.</w>": 1583, "house</w>": 1584, "funny</w>": 1585, "carefully</w>": 1586, "ound,</w>": 1587, "sand": 1588, "head</w>": 1589, "ried</w>": 1590, "few</w>": 1591, "ded.</w>": 1592, "forgot</w>": 1593, "work</w>": 1594, "mb</w>": 1595, "wonderful</w>": 1596, "shelter</w>": 1597, "perfe": 1598, "away,</w>": 1599, "ding</w>": 1600, "lost</w>": 1601, "slow": 1602, "bor": 1603, "yummy</w>": 1604, "cho": 1605, "makes</w>": 1606, "curious</w>": 1607, "toy.</w>": 1608, "walking</w>": 1609, "grin'</w>": 1610, "swag": 1611, "swaggrin'</w>": 1612, "y,\"</w>": 1613, "whar</w>": 1614, "b.</w>": 1615, "pink</w>": 1616, "say</w>": 1617, "ks.</w>": 1618, "molly</w>": 1619, "ballo": 1620, "declare</w>": 1621, "climb</w>": 1622, "climbed</w>": 1623, "ong": 1624, "tea": 1625, "cake</w>": 1626, "gger</w>": 1627, "ble</w>": 1628, "fast": 1629, "rain": 1630, "fish</w>": 1631, "key</w>": 1632, "clothe": 1633, "name</w>": 1634, "pupp": 1635, "ards</w>": 1636, "man.</w>": 1637, "benny</w>": 1638, "together,</w>": 1639, "spla": 1640, "ured</w>": 1641, "left</w>": 1642, "ting</w>": 1643, "billy</w>": 1644, "pas": 1645, "dang": 1646, "fix</w>": 1647, "friends,</w>": 1648, "it.\"</w>": 1649, "\"that</w>": 1650, "thing.</w>": 1651, "suddenly</w>": 1652, "creature</w>": 1653, "sear": 1654, "slide</w>": 1655, "tall</w>": 1656, "ol": 1657, "jum": 1658, "own</w>": 1659, "side,</w>": 1660, "brought</w>": 1661, "\"o": 1662, "door.</w>": 1663, "bad</w>": 1664, "forest.</w>": 1665, "dress</w>": 1666, "e?\"</w>": 1667, "sy</w>": 1668, "head.</w>": 1669, "nod": 1670, "storm</w>": 1671, "rock</w>": 1672, "id</w>": 1673, "zo": 1674, "boy.</w>": 1675, "rotten</w>": 1676, "listened</w>": 1677, "disa": 1678, "ded</w>": 1679, "fur": 1680, "ught</w>": 1681, "hor": 1682, "choo": 1683, "moral</w>": 1684, "tor</w>": 1685, "soun": 1686, "much.</w>": 1687, "er.\"</w>": 1688, "musi": 1689, "fluff": 1690, "wasn't</w>": 1691, "twin": 1692, "picture</w>": 1693, "while,</w>": 1694, "ces.</w>": 1695, "spi": 1696, "row</w>": 1697, "fiel": 1698, "mis": 1699, "towards</w>": 1700, "bel": 1701, "et": 1702, "spark": 1703, "doll</w>": 1704, "worry,</w>": 1705, "dr": 1706, "amy</w>": 1707, "us</w>": 1708, "close</w>": 1709, "was.</w>": 1710, "ben,</w>": 1711, "morn": 1712, "here</w>": 1713, "with": 1714, "ally</w>": 1715, "white</w>": 1716, "sist": 1717, "befo": 1718, "before.</w>": 1719, "jump</w>": 1720, "\"hello,</w>": 1721, "red.</w>": 1722, "hug.</w>": 1723, "pulled</w>": 1724, "\"but</w>": 1725, "animals.</w>": 1726, "runs</w>": 1727, "ny.</w>": 1728, "it?\"</w>": 1729, "mommy.</w>": 1730, "at.</w>": 1731, "bed</w>": 1732, "ons.</w>": 1733, "ang</w>": 1734, "sam": 1735, "pra": 1736, "frog</w>": 1737, "twi": 1738, "fair": 1739, "that": 1740, "far</w>": 1741, "up,</w>": 1742, "friendly</w>": 1743, "hand.</w>": 1744, "dis": 1745, "might</w>": 1746, "umm": 1747, "tim.</w>": 1748, "\"this</w>": 1749, "child": 1750, "ok,</w>": 1751, "ground</w>": 1752, "deep</w>": 1753, "drag": 1754, "prince": 1755, "top</w>": 1756, "promised</w>": 1757, "smartly</w>": 1758, "quickly</w>": 1759, "mama</w>": 1760, "there.</w>": 1761, "que": 1762, "fast.</w>": 1763, "shared</w>": 1764, "butterfly</w>": 1765, "max.</w>": 1766, "mp": 1767, "jim": 1768, "belie": 1769, "sing": 1770, "sca": 1771, "answ": 1772, "d!</w>": 1773, "ught": 1774, "dark</w>": 1775, "grate": 1776, "farm": 1777, "tarr</w>": 1778, "ki": 1779, "snow": 1780, "cars</w>": 1781, "cky</w>": 1782, "expla": 1783, "met</w>": 1784, "say,</w>": 1785, "sweet</w>": 1786, "prou": 1787, "ig": 1788, "better</w>": 1789, "bettarr</w>": 1790, "ele": 1791, "il.</w>": 1792, "hands.</w>": 1793, "surprised</w>": 1794, "family.</w>": 1795, "forest</w>": 1796, "childr": 1797, "such</w>": 1798, "ep.</w>": 1799, "pea": 1800, "lun": 1801, "nice.</w>": 1802, "blan": 1803, "kis": 1804, "favor": 1805, "tom,</w>": 1806, "tion</w>": 1807, "bber</w>": 1808, "special.</w>": 1809, "there,</w>": 1810, "ze</w>": 1811, "kitchen.</w>": 1812, "danger": 1813, "adventure.</w>": 1814, "thinks</w>": 1815, "wise</w>": 1816, "fier": 1817, "fea": 1818, "uni": 1819, "il": 1820, "mr": 1821, "turn": 1822, "bed.</w>": 1823, "lif": 1824, "park,</w>": 1825, "me?\"</w>": 1826, "hear": 1827, "nodded.</w>": 1828, "floor.</w>": 1829, "different</w>": 1830, "show": 1831, "cry": 1832, "blanke": 1833, "screa": 1834, "light</w>": 1835, "acro": 1836, "it!\"</w>": 1837, "table.</w>": 1838, "mil": 1839, "work.</w>": 1840, "dom</w>": 1841, "hold": 1842, "night</w>": 1843, "max": 1844, "pati": 1845, "ying</w>": 1846, "havin'</w>": 1847, "having</w>": 1848, "od</w>": 1849, "wis": 1850, "way.</w>": 1851, "rest</w>": 1852, "magica": 1853, "\"maybe</w>": 1854, "disapp": 1855, "soon,</w>": 1856, "heav": 1857, "slide.</w>": 1858, "nu": 1859, "wou": 1860, "yard.</w>": 1861, "zy</w>": 1862, "careful.</w>": 1863, "game": 1864, "hole</w>": 1865, "across</w>": 1866, "jill</w>": 1867, "scared,</w>": 1868, "pretend</w>": 1869, "explo": 1870, "patch</w>": 1871, "bear.</w>": 1872, "around,</w>": 1873, "stra": 1874, "try": 1875, "delicious</w>": 1876, "sit</w>": 1877, "lion</w>": 1878, "\"su": 1879, "cut</w>": 1880, "move</w>": 1881, "threw</w>": 1882, "mag": 1883, "under</w>": 1884, "undarr</w>": 1885, "stepped</w>": 1886, "food.</w>": 1887, "grass.</w>": 1888, "hot</w>": 1889, "fierce</w>": 1890, "grandma": 1891, "far": 1892, "stick</w>": 1893, "treasured</w>": 1894, "wher": 1895, "cold</w>": 1896, "ships</w>": 1897, "monst": 1898, "please</w>": 1899, "rabbit</w>": 1900, "lubber</w>": 1901, "believe</w>": 1902, "draw</w>": 1903, "bird": 1904, "join</w>": 1905, "wear</w>": 1906, "night,</w>": 1907, "\u00e2\u20ac\u2122t</w>": 1908, "wee": 1909, "nei": 1910, "favorite</w>": 1911, "fox</w>": 1912, "lie</w>": 1913, "welcom": 1914, "lov": 1915, "gather</w>": 1916, "cour": 1917, "slowly</w>": 1918, "\"hi": 1919, "everywhere</w>": 1920, "ough": 1921, "magical</w>": 1922, "without</w>": 1923, "making</w>": 1924, "by.</w>": 1925, "sad,</w>": 1926, "table</w>": 1927, "ted,</w>": 1928, "\"mom,</w>": 1929, "fire": 1930, "sam.</w>": 1931, "wisdom</w>": 1932, "pow": 1933, "game</w>": 1934, "luc": 1935, "s,\"</w>": 1936, "world</w>": 1937, "long": 1938, "baske": 1939, "event": 1940, "go.</w>": 1941, "swing": 1942, "ride</w>": 1943, "face</w>": 1944, "john": 1945, "trea": 1946, "pet</w>": 1947, "squirrel</w>": 1948, "flowers.</w>": 1949, "c.</w>": 1950, "dy.</w>": 1951, "broken</w>": 1952, "hoped</w>": 1953, "waited</w>": 1954, "s?\"</w>": 1955, "har": 1956, "cray": 1957, "finished</w>": 1958, "too,</w>": 1959, "now,</w>": 1960, "poli": 1961, "feels</w>": 1962, "must</w>": 1963, "rememb": 1964, "ser": 1965, "wri": 1966, "wouldn't</w>": 1967, "comfor": 1968, "eventu": 1969, "ck,</w>": 1970, "eyes.</w>": 1971, "himself</w>": 1972, "\"why</w>": 1973, "ten</w>": 1974, "ent,</w>": 1975, "chee": 1976, "neigh": 1977, "colorful</w>": 1978, "?\u00e2\u20ac</w>": 1979, "bag</w>": 1980, "ens</w>": 1981, "spa": 1982, "tted</w>": 1983, "voice.</w>": 1984, "\"okay,</w>": 1985, "him,</w>": 1986, "lett": 1987, "them": 1988, "brown</w>": 1989, "thi": 1990, "box": 1991, "reach</w>": 1992, "wrong.</w>": 1993, "cid": 1994, "ski": 1995, "coll": 1996, "doll": 1997, "cane": 1998, "colors</w>": 1999, "duck</w>": 2000, "mary</w>": 2001, "blocks</w>": 2002, "rat</w>": 2003, "ban": 2004, "now.</w>": 2005, "watch": 2006, "accid": 2007, "buc": 2008, "buccane": 2009, "hone": 2010, "cool</w>": 2011, "first</w>": 2012, "lla</w>": 2013, "bad.</w>": 2014, "draw": 2015, "ses.</w>": 2016, "agreed</w>": 2017, "jour": 2018, "mean": 2019, "learn</w>": 2020, "asks.</w>": 2021, "closed</w>": 2022, "sou": 2023, "drove</w>": 2024, "perfect</w>": 2025, "swagger</w>": 2026, "good.</w>": 2027, "cried</w>": 2028, "pushed</w>": 2029, "jen": 2030, "turn</w>": 2031, "trees</w>": 2032, "puppy</w>": 2033, "pictures</w>": 2034, "ures.</w>": 2035, "hat</w>": 2036, "pond.</w>": 2037, "visit</w>": 2038, "happy,</w>": 2039, "another</w>": 2040, "anotharr</w>": 2041, "surprise</w>": 2042, "listen.</w>": 2043, "arrived</w>": 2044, "fish.</w>": 2045, "shouted</w>": 2046, "bran": 2047, "\"ok,</w>": 2048, "same</w>": 2049, "start</w>": 2050, "rain</w>": 2051, "enough</w>": 2052, "lea": 2053, "jimmy</w>": 2054, "gge": 2055, "stori": 2056, "lth": 2057, "swee": 2058, "trou": 2059, "instea": 2060, "cried.</w>": 2061, "eleph": 2062, "stop</w>": 2063, "closer</w>": 2064, "closarr</w>": 2065, "laughed.</w>": 2066, "hide</w>": 2067, "\"mommy,</w>": 2068, "me,</w>": 2069, "grass</w>": 2070, "fen": 2071, "ya": 2072, "clean": 2073, "lar": 2074, "pe.</w>": 2075, "comin'</w>": 2076, "coming</w>": 2077, "off": 2078, "tin'</w>": 2079, "think</w>": 2080, "broke</w>": 2081, "anna.</w>": 2082, "reckon</w>": 2083, "black</w>": 2084, "what's</w>": 2085, "bob": 2086, "kne": 2087, "secre": 2088, "sup": 2089, "grateful</w>": 2090, "sign</w>": 2091, "ounta": 2092, "pond</w>": 2093, "cream</w>": 2094, "fire</w>": 2095, "stin'</w>": 2096, "build</w>": 2097, "hard.</w>": 2098, "post</w>": 2099, "your": 2100, "ter.</w>": 2101, "pes</w>": 2102, "curious.</w>": 2103, "hold</w>": 2104, "brave.</w>": 2105, "clou": 2106, "clapped</w>": 2107, "excited!</w>": 2108, "lesson</w>": 2109, "done</w>": 2110, "leaves</w>": 2111, "place.</w>": 2112, "\"sure,</w>": 2113, "row": 2114, "dadd": 2115, "t.\"</w>": 2116, "cket.</w>": 2117, "happy!</w>": 2118, "matt": 2119, "bow</w>": 2120, "with.</w>": 2121, "purp": 2122, "fluffy</w>": 2123, "tch": 2124, "when": 2125, "fish": 2126, "ther.</w>": 2127, "shook</w>": 2128, "sted</w>": 2129, "daught": 2130, "dist": 2131, "tion.</w>": 2132, "garden</w>": 2133, "store</w>": 2134, "pretend": 2135, "nor": 2136, "moved</w>": 2137, "seemed</w>": 2138, "sing</w>": 2139, "sin'</w>": 2140, "wn.</w>": 2141, "yumm": 2142, "sleep": 2143, "e's</w>": 2144, "mitt": 2145, "lesson.</w>": 2146, "woke</w>": 2147, "dropped</w>": 2148, "hugs</w>": 2149, "ps</w>": 2150, "boun": 2151, "sitt": 2152, "you!\"</w>": 2153, "sang</w>": 2154, "her,</w>": 2155, "dog": 2156, "window</w>": 2157, "log</w>": 2158, "stood</w>": 2159, "ide": 2160, "stop": 2161, "piece</w>": 2162, "sound</w>": 2163, "ing?\"</w>": 2164, "himself.</w>": 2165, "spot.</w>": 2166, "eat.</w>": 2167, "wet</w>": 2168, "though</w>": 2169, "lin'</w>": 2170, "bath": 2171, "ase</w>": 2172, "schoo": 2173, "again,</w>": 2174, "my": 2175, "enjoy</w>": 2176, "scary</w>": 2177, "late.</w>": 2178, "caught</w>": 2179, "toys,</w>": 2180, "zi": 2181, "boys</w>": 2182, "swam</w>": 2183, "teach": 2184, "mummy</w>": 2185, "long.</w>": 2186, "takes</w>": 2187, "hit</w>": 2188, "cookies</w>": 2189, "tun": 2190, "d.\"</w>": 2191, "smiled,</w>": 2192, "adventure</w>": 2193, "world.</w>": 2194, "sol": 2195, "king.</w>": 2196, "scurryin'</w>": 2197, "\"you're</w>": 2198, "birth": 2199, "\"oh</w>": 2200, "gru": 2201, "angry</w>": 2202, "cir": 2203, "ble.</w>": 2204, "ft.</w>": 2205, "herself</w>": 2206, "one,</w>": 2207, "year</w>": 2208, "explore.</w>": 2209, "cat.</w>": 2210, "stuck</w>": 2211, "hurt.</w>": 2212, "who": 2213, "said:</w>": 2214, "less</w>": 2215, "running</w>": 2216, "follow</w>": 2217, "afra": 2218, "food</w>": 2219, "ant.</w>": 2220, "sunny</w>": 2221, "grub</w>": 2222, "inter": 2223, "son</w>": 2224, "sun.</w>": 2225, "amazed</w>": 2226, "bil": 2227, "understand</w>": 2228, "wondered</w>": 2229, "land": 2230, "att": 2231, "bug</w>": 2232, "game.</w>": 2233, "o.</w>": 2234, "h,</w>": 2235, "emma</w>": 2236, "ch,</w>": 2237, "\"do</w>": 2238, "soon.</w>": 2239, "flowers</w>": 2240, "flowarrs</w>": 2241, "mouse</w>": 2242, "bilge</w>": 2243, "corn": 2244, "cake.</w>": 2245, "mess.</w>": 2246, "mr.</w>": 2247, "ers,</w>": 2248, "blocks.</w>": 2249, "thou": 2250, "fing": 2251, "hair</w>": 2252, "el.</w>": 2253, "truck.</w>": 2254, "first,</w>": 2255, "silly</w>": 2256, "fairy</w>": 2257, "am": 2258, "pill": 2259, "morning,</w>": 2260, "eas": 2261, "ener": 2262, "book</w>": 2263, "turns</w>": 2264, "wra": 2265, "swimm": 2266, "intere": 2267, "gettin'</w>": 2268, "getting</w>": 2269, "gigg": 2270, "forget</w>": 2271, "e,\"</w>": 2272, "onto</w>": 2273, "journe": 2274, "set.</w>": 2275, "imag": 2276, "help,</w>": 2277, "finish": 2278, "okay.</w>": 2279, "swim</w>": 2280, "comes</w>": 2281, "kind.</w>": 2282, "enta": 2283, "pull</w>": 2284, "book.</w>": 2285, "train</w>": 2286, "gone.</w>": 2287, "\"of</w>": 2288, "touched</w>": 2289, "t!\"</w>": 2290, "craw": 2291, "lin": 2292, "xed</w>": 2293, "fly.</w>": 2294, "sunshin": 2295, "mom's</w>": 2296, "goodby": 2297, "bigg": 2298, "whist": 2299, "ing!</w>": 2300, "cce": 2301, "laugh</w>": 2302, "bru": 2303, "purple</w>": 2304, "succe": 2305, "cer": 2306, "cheer": 2307, "promi": 2308, "fun!</w>": 2309, "magic</w>": 2310, "princess</w>": 2311, "right.</w>": 2312, "fight": 2313, "gives</w>": 2314, "3</w>": 2315, "else</w>": 2316, "trading</w>": 2317, "self": 2318, "bubb": 2319, "shes</w>": 2320, "whe": 2321, "pudd": 2322, "llin'</w>": 2323, "lling</w>": 2324, "flower</w>": 2325, "flowarr</w>": 2326, "arriv": 2327, "jun": 2328, "jack.</w>": 2329, "accidenta": 2330, "accidentally</w>": 2331, "dance</w>": 2332, "ven</w>": 2333, "proud.</w>": 2334, "clothes</w>": 2335, "moment</w>": 2336, "sau": 2337, "door": 2338, "ious</w>": 2339, "explained</w>": 2340, "baby</w>": 2341, "house,</w>": 2342, "puts</w>": 2343, "colle": 2344, "\"lily,</w>": 2345, "gentle</w>": 2346, "ve,</w>": 2347, "won't</w>": 2348, "emi": 2349, "break</w>": 2350, "spid": 2351, "dly</w>": 2352, "in's</w>": 2353, "wea": 2354, "tired.</w>": 2355, "hair": 2356, "smiles</w>": 2357, "sandwi": 2358, "bee</w>": 2359, "inside,</w>": 2360, "strong.</w>": 2361, "ve-": 2362, "pointed</w>": 2363, "med.</w>": 2364, "inv": 2365, "bear": 2366, "castle</w>": 2367, "huge</w>": 2368, "carro": 2369, "strong</w>": 2370, "heave-": 2371, "heave-ho</w>": 2372, "val": 2373, "light": 2374, "proble": 2375, "din'</w>": 2376, "mach": 2377, "dinner.</w>": 2378, "bit": 2379, "health": 2380, "sound.</w>": 2381, "boo": 2382, "wom": 2383, "ctor</w>": 2384, "bought</w>": 2385, "let": 2386, "lli": 2387, "build": 2388, "playing.</w>": 2389, "gs.</w>": 2390, "pieces</w>": 2391, "woods.</w>": 2392, "pretty.</w>": 2393, "grow": 2394, "bite</w>": 2395, "ged</w>": 2396, "stick": 2397, "orange</w>": 2398, "animal</w>": 2399, "slide": 2400, "dragon</w>": 2401, "near": 2402, "sammy</w>": 2403, "herself.</w>": 2404, "doll.</w>": 2405, "store.</w>": 2406, "mia": 2407, "eag": 2408, "ley</w>": 2409, "room,</w>": 2410, "dream": 2411, "flower.</w>": 2412, "wish</w>": 2413, "me.\"</w>": 2414, "prote": 2415, "sco": 2416, "bur": 2417, "sand</w>": 2418, "along</w>": 2419, "mp</w>": 2420, "colou": 2421, "shouted.</w>": 2422, "ings.</w>": 2423, "fron": 2424, "tter": 2425, "which</w>": 2426, "tom's</w>": 2427, "old.</w>": 2428, "org": 2429, "air.</w>": 2430, "monkey</w>": 2431, "them,</w>": 2432, "smiles.</w>": 2433, "joy.</w>": 2434, "cele": 2435, "ank</w>": 2436, "ver,</w>": 2437, "body</w>": 2438, "respe": 2439, "hill.</w>": 2440, "tail.</w>": 2441, "practi": 2442, "worri": 2443, "sur": 2444, "paint</w>": 2445, "minu": 2446, "real</w>": 2447, "valu": 2448, "wear": 2449, "alone.</w>": 2450, "fit</w>": 2451, "spotted</w>": 2452, "admi": 2453, "smelled</w>": 2454, "hope</w>": 2455, "talked</w>": 2456, "all": 2457, "off.</w>": 2458, "tie</w>": 2459, "cheered</w>": 2460, "these</w>": 2461, "owl</w>": 2462, "puzz": 2463, "myster": 2464, "confu": 2465, "organi": 2466, "hill</w>": 2467, "back,</w>": 2468, "p,</w>": 2469, "heavy</w>": 2470, "berri": 2471, "tim's</w>": 2472, "danc": 2473, "strang": 2474, "ball": 2475, "window.</w>": 2476, "fun,</w>": 2477, "board</w>": 2478, "glas": 2479, "fellow</w>": 2480, "bowl</w>": 2481, "laugh.</w>": 2482, "everythin'</w>": 2483, "everything</w>": 2484, "'ll</w>": 2485, "brother</w>": 2486, "ely.</w>": 2487, "you?\"</w>": 2488, "playing,</w>": 2489, "no.</w>": 2490, "ling.</w>": 2491, "stru": 2492, "done,</w>": 2493, "asle": 2494, "music</w>": 2495, "er!\"</w>": 2496, "searched</w>": 2497, "stri": 2498, "tryin'</w>": 2499, "ful": 2500, "trying</w>": 2501, "beach.</w>": 2502, "questi": 2503, "front</w>": 2504, "rid": 2505, "move.</w>": 2506, "doctor</w>": 2507, "\"the</w>": 2508, "fli": 2509, "mel": 2510, "keep": 2511, "hungry.</w>": 2512, "race</w>": 2513, "whole</w>": 2514, "n\u00e2\u20ac\u2122t</w>": 2515, "mia.</w>": 2516, "bott": 2517, "rock.</w>": 2518, "sounds</w>": 2519, "loves</w>": 2520, "lit</w>": 2521, "lucy.</w>": 2522, "bike</w>": 2523, "jenny</w>": 2524, "ran": 2525, "shouted,</w>": 2526, "everywher": 2527, "lay</w>": 2528, "smart</w>": 2529, "ins</w>": 2530, "pic": 2531, "hung": 2532, "impres": 2533, "creati": 2534, "rolled</w>": 2535, "beat</w>": 2536, "arrived,</w>": 2537, "lucky</w>": 2538, "oce": 2539, "picni": 2540, "something.</w>": 2541, "colour": 2542, "living</w>": 2543, "livin'</w>": 2544, "this": 2545, "sne": 2546, "\"look</w>": 2547, "busy</w>": 2548, "reli": 2549, "enough": 2550, "ings</w>": 2551, "goes</w>": 2552, "tee": 2553, "andy</w>": 2554, "ws</w>": 2555, "ary</w>": 2556, "spent</w>": 2557, "jar</w>": 2558, "end,</w>": 2559, "walk.</w>": 2560, "mous</w>": 2561, "tight": 2562, "beach</w>": 2563, "\"hi,</w>": 2564, "chair</w>": 2565, "castle.</w>": 2566, "peace": 2567, "sharp</w>": 2568, "ez": 2569, "eventually</w>": 2570, "mess": 2571, "jim</w>": 2572, "joy</w>": 2573, "w,</w>": 2574, "meas": 2575, "bright": 2576, "jack": 2577, "pretended</w>": 2578, "kids</w>": 2579, "tomor": 2580, "hungry</w>": 2581, "that?\"</w>": 2582, "medi": 2583, "people.</w>": 2584, "hole.</w>": 2585, "floor</w>": 2586, "twee": 2587, "mista": 2588, "tail</w>": 2589, "tor": 2590, "sigh": 2591, "words</w>": 2592, "ited</w>": 2593, "forgive</w>": 2594, "smo": 2595, "pan": 2596, "soa": 2597, "trees.</w>": 2598, "out,</w>": 2599, "girl": 2600, "hopp": 2601, "roa": 2602, "low</w>": 2603, "choco": 2604, "mounta": 2605, "could.</w>": 2606, "shir": 2607, "that,</w>": 2608, "sarah": 2609, "candy</w>": 2610, "blanket</w>": 2611, "worried</w>": 2612, "thank": 2613, "boat.</w>": 2614, "parley</w>": 2615, "balloon</w>": 2616, "pin": 2617, "tries</w>": 2618, "children</w>": 2619, "danced</w>": 2620, "air</w>": 2621, "dress.</w>": 2622, "fun!\"</w>": 2623, "ladd": 2624, "robo": 2625, "paper.</w>": 2626, "\"come</w>": 2627, "buccaneers</w>": 2628, "brid": 2629, "nau": 2630, "mark</w>": 2631, "naughty</w>": 2632, "emily</w>": 2633, "books.</w>": 2634, "throw</w>": 2635, "night.</w>": 2636, "woman</w>": 2637, "round</w>": 2638, "dad,</w>": 2639, "er!</w>": 2640, "else.</w>": 2641, "finished,</w>": 2642, "neck": 2643, "chick": 2644, "jen</w>": 2645, "inde": 2646, "cup": 2647, "elephant</w>": 2648, "in,</w>": 2649, "dry</w>": 2650, "chased</w>": 2651, "secret</w>": 2652, "poo": 2653, "apple</w>": 2654, "emb": 2655, "share.</w>": 2656, "embarr": 2657, "embarras": 2658, "wore</w>": 2659, "ka": 2660, "to.</w>": 2661, "ie</w>": 2662, "paper</w>": 2663, "paparr</w>": 2664, "part</w>": 2665, "\"hey,</w>": 2666, "grab</w>": 2667, "did.</w>": 2668, "eng": 2669, "rain.</w>": 2670, "idea</w>": 2671, "neckla": 2672, "cool": 2673, "down,</w>": 2674, "loud": 2675, "please,</w>": 2676, "mone": 2677, "eared</w>": 2678, "new.</w>": 2679, "quiet</w>": 2680, "me!\"</w>": 2681, "sof": 2682, "relie": 2683, "kids.</w>": 2684, "incre": 2685, "banan": 2686, "spr": 2687, "welcome,</w>": 2688, "dne": 2689, "\"we": 2690, "spra": 2691, "pile</w>": 2692, "cars.</w>": 2693, "bottle</w>": 2694, "hard": 2695, "twins.</w>": 2696, "gar": 2697, "dog,</w>": 2698, "learn": 2699, "ctor": 2700, "\"what's</w>": 2701, "ke,</w>": 2702, "anything</w>": 2703, "anythin'</w>": 2704, "yell": 2705, "cry</w>": 2706, "lot.</w>": 2707, "un</w>": 2708, "top.</w>": 2709, "lovely</w>": 2710, "oin": 2711, "bucket</w>": 2712, "gather": 2713, "king,</w>": 2714, "ine.</w>": 2715, "celebra": 2716, "tree,</w>": 2717, "ong,</w>": 2718, "shoes</w>": 2719, "stories</w>": 2720, "wall.</w>": 2721, "days</w>": 2722, "coura": 2723, "outside,</w>": 2724, "talk</w>": 2725, "sa</w>": 2726, "ter,</w>": 2727, "tired</w>": 2728, "helping</w>": 2729, "helpin'</w>": 2730, "egg": 2731, "yard</w>": 2732, "others.</w>": 2733, "goodbye.</w>": 2734, "job": 2735, "emp": 2736, "mea": 2737, "lake.</w>": 2738, "phone</w>": 2739, "stand": 2740, "icy</w>": 2741, "wide</w>": 2742, "say.</w>": 2743, "clu": 2744, "first.</w>": 2745, "pee": 2746, "jung": 2747, "deter": 2748, "patient</w>": 2749, "person</w>": 2750, "giant</w>": 2751, "call</w>": 2752, "furry</w>": 2753, "d!\"</w>": 2754, "cannot</w>": 2755, "lar</w>": 2756, "ones</w>": 2757, "shiny.</w>": 2758, "okay</w>": 2759, "hair.</w>": 2760, "flyin'</w>": 2761, "flying</w>": 2762, "tasted</w>": 2763, "after.</w>": 2764, "determin": 2765, "blew</w>": 2766, "ves.</w>": 2767, "dolls</w>": 2768, "finish</w>": 2769, "forever.</w>": 2770, "ing!\"</w>": 2771, "decor": 2772, "stair": 2773, "ents.</w>": 2774, "excited,</w>": 2775, "read": 2776, "push</w>": 2777, "day": 2778, "tv": 2779, "dirty</w>": 2780, "pri": 2781, "spread</w>": 2782, "lake</w>": 2783, "disappoin": 2784, "cozy</w>": 2785, "colors.</w>": 2786, "hour": 2787, "all.</w>": 2788, "backyard.</w>": 2789, "leaves.</w>": 2790, "together.\"</w>": 2791, "wild</w>": 2792, "surprise.</w>": 2793, "hears</w>": 2794, "cold.</w>": 2795, "arms</w>": 2796, "tharr</w>": 2797, "jake</w>": 2798, "pped.</w>": 2799, "fall</w>": 2800, "fight</w>": 2801, "cke": 2802, "age</w>": 2803, "cute</w>": 2804, "gone</w>": 2805, "meado": 2806, "fra": 2807, "sara.</w>": 2808, "vege": 2809, "gener": 2810, "\"my</w>": 2811, "sci": 2812, "safe": 2813, "promise</w>": 2814, "ssed</w>": 2815, "pl": 2816, "almost</w>": 2817, "ben's</w>": 2818, "tomm": 2819, "ked,</w>": 2820, "stars</w>": 2821, "course,</w>": 2822, "ous,</w>": 2823, "late</w>": 2824, "meet</w>": 2825, "asha": 2826, "balan": 2827, "ward": 2828, "wave</w>": 2829, "mittens</w>": 2830, "hat.</w>": 2831, "here,</w>": 2832, "know.</w>": 2833, "teach</w>": 2834, "tells</w>": 2835, "wash</w>": 2836, "that.</w>": 2837, "ld,</w>": 2838, "cy": 2839, "interest": 2840, "missed</w>": 2841, "om.</w>": 2842, "grandma.</w>": 2843, "gall": 2844, "large</w>": 2845, "more": 2846, "hon": 2847, "kite</w>": 2848, "landed</w>": 2849, "pot</w>": 2850, "wol": 2851, "sam,</w>": 2852, "ob": 2853, "light.</w>": 2854, "hid</w>": 2855, "star</w>": 2856, "sit": 2857, "knocked</w>": 2858, "tight.</w>": 2859, "happened</w>": 2860, "games</w>": 2861, "anything.</w>": 2862, "worried.</w>": 2863, "carried</w>": 2864, "crying.</w>": 2865, "protect</w>": 2866, "surprise": 2867, "soup</w>": 2868, "doin'</w>": 2869, "doing</w>": 2870, "noises</w>": 2871, "sweeti": 2872, "save</w>": 2873, "too.\"</w>": 2874, "look.</w>": 2875, "whisp": 2876, "xi": 2877, "frustra": 2878, "plane</w>": 2879, "air": 2880, "replied</w>": 2881, "field</w>": 2882, "hello": 2883, "relieved</w>": 2884, "spit": 2885, "lila": 2886, "\u00e2\u20ac\u0153i</w>": 2887, "circle": 2888, "twins</w>": 2889, "lisa</w>": 2890, "hospit": 2891, "go,</w>": 2892, "upset</w>": 2893, "mean.</w>": 2894, "pizz": 2895, "power": 2896, "tight</w>": 2897, "live</w>": 2898, "could": 2899, "ful,</w>": 2900, "cookies.</w>": 2901, "surprised.</w>": 2902, "\"good</w>": 2903, "grow</w>": 2904, "usu": 2905, "radi": 2906, "kitchen</w>": 2907, "galley</w>": 2908, "let\u00e2\u20ac\u2122s</w>": 2909, "ked.</w>": 2910, "basket</w>": 2911, "hidd": 2912, "dangerous.</w>": 2913, "beautiful.</w>": 2914, "grou": 2915, "rocks</w>": 2916, "mouth.</w>": 2917, "tched</w>": 2918, "tes</w>": 2919, "write</w>": 2920, "grew</w>": 2921, "taught</w>": 2922, "ner": 2923, "garden,</w>": 2924, "party</w>": 2925, "adventure": 2926, "swing</w>": 2927, "swin'</w>": 2928, "hop</w>": 2929, "replied.</w>": 2930, "ine": 2931, "bird,</w>": 2932, "woods</w>": 2933, "kni": 2934, "pes.</w>": 2935, "carry</w>": 2936, "ffi": 2937, "max,</w>": 2938, "afraid</w>": 2939, "lock</w>": 2940, "grump": 2941, "cap": 2942, "jok": 2943, "drive</w>": 2944, "cream.</w>": 2945, "river.</w>": 2946, "ts,</w>": 2947, "farmer</w>": 2948, "farmarr</w>": 2949, "smell</w>": 2950, "llo</w>": 2951, "red,</w>": 2952, "mid": 2953, "rose</w>": 2954, "clas": 2955, "anyone</w>": 2956, "ina": 2957, "offi": 2958, "arm</w>": 2959, "int": 2960, "adventures</w>": 2961, "you,\"</w>": 2962, "shapes</w>": 2963, "gets</w>": 2964, "field.</w>": 2965, "monke": 2966, "birds.</w>": 2967, "nerv": 2968, "ssor": 2969, "tasty</w>": 2970, "ge,</w>": 2971, "know,</w>": 2972, "soon": 2973, "bag.</w>": 2974, "way,</w>": 2975, "daddy.</w>": 2976, "gif": 2977, "cater": 2978, "caterpill": 2979, "gently</w>": 2980, "pop": 2981, "mir": 2982, "dino": 2983, "glu": 2984, "lonely</w>": 2985, "remember</w>": 2986, "remembarr</w>": 2987, "last</w>": 2988, "ship</w>": 2989, "warm.</w>": 2990, "amazing</w>": 2991, "amazin'</w>": 2992, "lls.</w>": 2993, "remin": 2994, "party.</w>": 2995, "over.</w>": 2996, "numb": 2997, "street.</w>": 2998, "clothes.</w>": 2999, "esca": 3000, "alone</w>": 3001, "count</w>": 3002, "strong": 3003, "broken.</w>": 3004, "mess</w>": 3005, "packed</w>": 3006, "scissor": 3007, "doing?\"</w>": 3008, "ug": 3009, "mouth</w>": 3010, "gray</w>": 3011, "ensi": 3012, "taste</w>": 3013, "twir": 3014, "pack</w>": 3015, "'t.</w>": 3016, "t?\"</w>": 3017, "bs</w>": 3018, "today</w>": 3019, "glo": 3020, "mind</w>": 3021, "gathered</w>": 3022, "moment.</w>": 3023, "heart</w>": 3024, "sea.</w>": 3025, "barked</w>": 3026, "ducks</w>": 3027, "luck": 3028, "drew</w>": 3029, "ches</w>": 3030, "fire.</w>": 3031, "snu": 3032, "and,</w>": 3033, "tig": 3034, "sea": 3035, "owner</w>": 3036, "ownarr</w>": 3037, "cup</w>": 3038, "anna,</w>": 3039, "ever.</w>": 3040, "well.</w>": 3041, "yar": 3042, "tak": 3043, "takin'</w>": 3044, "taking</w>": 3045, "\"tom,</w>": 3046, "us.</w>": 3047, "der</w>": 3048, "darr</w>": 3049, "understand": 3050, "juice</w>": 3051, "expensi": 3052, "\"oh,</w>": 3053, "ton": 3054, "kitty</w>": 3055, "excitem": 3056, "rope</w>": 3057, "boa": 3058, "quar": 3059, "liz": 3060, "midd": 3061, "fig": 3062, "kissed</w>": 3063, "whenever</w>": 3064, "whenevarr</w>": 3065, "\"are</w>": 3066, "vegetab": 3067, "agreed.</w>": 3068, "high.</w>": 3069, "ing.\"</w>": 3070, "song.</w>": 3071, "it\u00e2\u20ac\u2122s</w>": 3072, "careful,</w>": 3073, "friend.\"</w>": 3074, "\"where</w>": 3075, "ss,</w>": 3076, "wagged</w>": 3077, "hidden</w>": 3078, "be.</w>": 3079, "mes</w>": 3080, "pieces.</w>": 3081, "shoo": 3082, "pa</w>": 3083, "rainbow</w>": 3084, "but,</w>": 3085, "bigger</w>": 3086, "biggarr</w>": 3087, "alice</w>": 3088, "obe": 3089, "cheese</w>": 3090, "sleep.</w>": 3091, "dad": 3092, "ignor": 3093, "bread</w>": 3094, "picks</w>": 3095, "drin": 3096, "sue.</w>": 3097, "scre": 3098, "grandpa</w>": 3099, "th,</w>": 3100, "words.</w>": 3101, "johnny</w>": 3102, "led.</w>": 3103, "ham": 3104, "exa": 3105, "die</w>": 3106, "logs</w>": 3107, "specially</w>": 3108, "gift</w>": 3109, "ongs</w>": 3110, "especially</w>": 3111, "poor</w>": 3112, "mail": 3113, "id.</w>": 3114, "medic": 3115, "nice": 3116, "healthy</w>": 3117, "wet.</w>": 3118, "distan": 3119, "gue": 3120, "lunch.</w>": 3121, "stand</w>": 3122, "screamed</w>": 3123, "ws.</w>": 3124, "things,</w>": 3125, "fence.</w>": 3126, "can.</w>": 3127, "yo": 3128, "mysterious</w>": 3129, "taken</w>": 3130, "coat</w>": 3131, "child</w>": 3132, "school.</w>": 3133, "noises.</w>": 3134, "ball,</w>": 3135, "branch</w>": 3136, "special": 3137, "dest": 3138, "car,</w>": 3139, "town</w>": 3140, "stick.</w>": 3141, "nic": 3142, "faster.</w>": 3143, "zoom": 3144, "eating</w>": 3145, "ward</w>": 3146, "pocket</w>": 3147, "sitting</w>": 3148, "sittin'</w>": 3149, "beauty</w>": 3150, "group</w>": 3151, "sunshine.</w>": 3152, "dirty.</w>": 3153, "la</w>": 3154, "'d</w>": 3155, "cted</w>": 3156, "elder": 3157, "ggled</w>": 3158, "later,</w>": 3159, "stop.</w>": 3160, "holding</w>": 3161, "holdin'</w>": 3162, "feastin'</w>": 3163, "mana": 3164, "horse</w>": 3165, "dream</w>": 3166, "twe": 3167, "sand.</w>": 3168, "pocket.</w>": 3169, "mum": 3170, "sin": 3171, "pur": 3172, "tho": 3173, "\"sorry,</w>": 3174, "nest</w>": 3175, "rabbit.</w>": 3176, "yummy.</w>": 3177, "chir": 3178, "swing.</w>": 3179, "bed,</w>": 3180, "fence</w>": 3181, "sm": 3182, "buzz": 3183, "bench.</w>": 3184, "ally,</w>": 3185, "grea": 3186, "neighbor": 3187, "licked</w>": 3188, "closer.</w>": 3189, "saved</w>": 3190, "t,\"</w>": 3191, "movi": 3192, "roll</w>": 3193, "mad</w>": 3194, "longer</w>": 3195, "longarr</w>": 3196, "rest": 3197, "te,</w>": 3198, "snow</w>": 3199, "rock": 3200, "returned</w>": 3201, "wanted.</w>": 3202, "nap.</w>": 3203, "incredi": 3204, "feed</w>": 3205, "children.</w>": 3206, "scra": 3207, "self,</w>": 3208, "wall</w>": 3209, "dark.</w>": 3210, "test</w>": 3211, "cow</w>": 3212, "thankful</w>": 3213, "dangerous</w>": 3214, "bow.</w>": 3215, "job</w>": 3216, "clean.</w>": 3217, "vel": 3218, "rela": 3219, "?\".</w>": 3220, "everywhere.</w>": 3221, "missi": 3222, "pack": 3223, "pictures.</w>": 3224, "age.</w>": 3225, "shy</w>": 3226, "button</w>": 3227, "wro": 3228, "ice": 3229, "break": 3230, "micro": 3231, "monster</w>": 3232, "monstarr</w>": 3233, "determined</w>": 3234, "loy": 3235, "snake</w>": 3236, "eventually,</w>": 3237, "dol": 3238, "buccaneer</w>": 3239, "money.</w>": 3240, "okay?\"</w>": 3241, "again.\"</w>": 3242, "books</w>": 3243, "past": 3244, "sugge": 3245, "adventur": 3246, "no!</w>": 3247, "enough,</w>": 3248, "char": 3249, "loud.</w>": 3250, "splashed</w>": 3251, "become</w>": 3252, "rest.</w>": 3253, "nose</w>": 3254, "max's</w>": 3255, "box,</w>": 3256, "elderly</w>": 3257, "sick.</w>": 3258, "\"ye": 3259, "appeared</w>": 3260, "went,</w>": 3261, "bring</w>": 3262, "brin'</w>": 3263, "ds,</w>": 3264, "listen": 3265, ",\u00e2\u20ac</w>": 3266, "candy.</w>": 3267, "tch.</w>": 3268, "shes.</w>": 3269, "old,</w>": 3270, "sarah.</w>": 3271, "song": 3272, "pou": 3273, "forest,</w>": 3274, "villa": 3275, "bob.</w>": 3276, "ali": 3277, "it,\"</w>": 3278, "plan.</w>": 3279, "ssa": 3280, "ys.</w>": 3281, "mud</w>": 3282, "adventures.</w>": 3283, "often</w>": 3284, "worry</w>": 3285, "small": 3286, "chan": 3287, "excited": 3288, "tim,</w>": 3289, "flowers,</w>": 3290, "later</w>": 3291, "latarr</w>": 3292, "first": 3293, "turt": 3294, "animals,</w>": 3295, "corn</w>": 3296, "jewel": 3297, "splash</w>": 3298, "after": 3299, "recor": 3300, "plant</w>": 3301, "realised</w>": 3302, "set,</w>": 3303, "machine</w>": 3304, "timmy,</w>": 3305, "butterfly.</w>": 3306, "dolph": 3307, "clouds</w>": 3308, "scary.</w>": 3309, "chang": 3310, "scu": 3311, "mix</w>": 3312, "known</w>": 3313, "bench</w>": 3314, "drank</w>": 3315, "today,</w>": 3316, "less.</w>": 3317, "fixed</w>": 3318, "ink": 3319, "ning.</w>": 3320, "trouble.</w>": 3321, "brother": 3322, "prince</w>": 3323, "mix": 3324, "\"ben,</w>": 3325, "diffi": 3326, "difficu": 3327, "qua": 3328, "skipped</w>": 3329, "careful": 3330, "bike.</w>": 3331, "tea</w>": 3332, "lonely.</w>": 3333, "shout": 3334, "hoo": 3335, "friendly.</w>": 3336, "cool.</w>": 3337, "sad": 3338, "fun.\"</w>": 3339, "er's</w>": 3340, "amazed.</w>": 3341, "done.</w>": 3342, "nothin'</w>": 3343, "nothing</w>": 3344, "passed</w>": 3345, "eared.</w>": 3346, "asks</w>": 3347, "farm.</w>": 3348, "ches.</w>": 3349, "jane.</w>": 3350, "pay</w>": 3351, "board.</w>": 3352, "thought": 3353, "lose</w>": 3354, "cau": 3355, "comfortable</w>": 3356, "lifted</w>": 3357, "fold": 3358, "net</w>": 3359, "susie</w>": 3360, "jea": 3361, "sky,</w>": 3362, "ned.</w>": 3363, "sail</w>": 3364, "walking,</w>": 3365, "uniqu": 3366, "weir": 3367, "spoon</w>": 3368, "farm</w>": 3369, "powerful</w>": 3370, "chocolate</w>": 3371, "sil": 3372, "peaceful</w>": 3373, "faces.</w>": 3374, "wrote</w>": 3375, "insid": 3376, "walked,</w>": 3377, "decide</w>": 3378, "shows</w>": 3379, "cloud</w>": 3380, "kindne": 3381, "perfor": 3382, "dizz": 3383, "use": 3384, "those</w>": 3385, "music.</w>": 3386, "smiling.</w>": 3387, "road.</w>": 3388, "success": 3389, "middle</w>": 3390, "ut</w>": 3391, "won</w>": 3392, "milk</w>": 3393, "sailed</w>": 3394, "shin'</w>": 3395, "shing</w>": 3396, "bush.</w>": 3397, "stir": 3398, "offered</w>": 3399, "needs</w>": 3400, "penci": 3401, "wrapped</w>": 3402, "aun": 3403, "sque": 3404, "discovered</w>": 3405, "managed</w>": 3406, "funny.</w>": 3407, "sometimes,</w>": 3408, "snowman</w>": 3409, "year": 3410, "gas": 3411, "wrong</w>": 3412, "cleaned</w>": 3413, "apples</w>": 3414, "walks</w>": 3415, "compe": 3416, "fill</w>": 3417, "throw": 3418, "marke": 3419, "crab</w>": 3420, "win's</w>": 3421, "brush</w>": 3422, "ouri": 3423, "here.</w>": 3424, "dou": 3425, "too!\"</w>": 3426, "cloth</w>": 3427, "fright": 3428, "ffed</w>": 3429, "apo": 3430, "tower.</w>": 3431, "helpful</w>": 3432, "smoo": 3433, "apolo": 3434, "boss": 3435, "soldi": 3436, "ther,</w>": 3437, "surr": 3438, "zoom</w>": 3439, "sticks</w>": 3440, "carrot</w>": 3441, "robot</w>": 3442, "pick": 3443, "vel</w>": 3444, "leo</w>": 3445, "belong": 3446, "yog": 3447, "long,</w>": 3448, "cit": 3449, "ppin'</w>": 3450, "crawled</w>": 3451, "favouri": 3452, "pping</w>": 3453, "ct.</w>": 3454, "closer,</w>": 3455, "respect</w>": 3456, "comple": 3457, "guit": 3458, "fe</w>": 3459, "shado": 3460, "unusu": 3461, "shelf.</w>": 3462, "norma": 3463, "ons,</w>": 3464, "straw": 3465, "smooth</w>": 3466, "snow.</w>": 3467, "minute": 3468, "umbled</w>": 3469, "go!\"</w>": 3470, "pair</w>": 3471, "quiet.</w>": 3472, "teacher</w>": 3473, "sack</w>": 3474, "ins.</w>": 3475, "wolf</w>": 3476, "libr": 3477, "smart.</w>": 3478, "mp.</w>": 3479, "watchin'</w>": 3480, "watching</w>": 3481, "well</w>": 3482, "everyone.</w>": 3483, "se!</w>": 3484, "understand.</w>": 3485, "tra</w>": 3486, "chase</w>": 3487, "and-": 3488, "terri": 3489, "ssi": 3490, "extra</w>": 3491, "trun": 3492, "acce": 3493, "went.</w>": 3494, "lum": 3495, "grace": 3496, "nose.</w>": 3497, "chu": 3498, "row.</w>": 3499, "pepp": 3500, "bobby</w>": 3501, "ef</w>": 3502, "ms</w>": 3503, "bell</w>": 3504, "strea": 3505, "understood</w>": 3506, "was,</w>": 3507, "before": 3508, "elli": 3509, "sop": 3510, "again!</w>": 3511, "win</w>": 3512, "se.\"</w>": 3513, "hang": 3514, "les,</w>": 3515, "honest</w>": 3516, "\"who</w>": 3517, "sophi": 3518, "kitten</w>": 3519, "brilli": 3520, "bed": 3521, "spicy</w>": 3522, "nin'</w>": 3523, "stic</w>": 3524, "favourite</w>": 3525, "ting.</w>": 3526, "sparkly</w>": 3527, "wheel": 3528, "pleased</w>": 3529, "spin": 3530, "feather": 3531, "amon": 3532, "trees,</w>": 3533, "zoo": 3534, "new": 3535, "cook</w>": 3536, "anna's</w>": 3537, "cake": 3538, "race.</w>": 3539, "please!\"</w>": 3540, "famous</w>": 3541, "thir": 3542, "bus</w>": 3543, "picture.</w>": 3544, "fruit</w>": 3545, "land.</w>": 3546, "confused.</w>": 3547, "police</w>": 3548, "phone.</w>": 3549, "anci": 3550, "able.</w>": 3551, "against</w>": 3552, "happine": 3553, "cudd": 3554, "frid": 3555, "loyal</w>": 3556, "story.</w>": 3557, "dge</w>": 3558, "shop": 3559, "pump": 3560, "orn</w>": 3561, "eze</w>": 3562, "stubb": 3563, "safel": 3564, "wn,</w>": 3565, "vely</w>": 3566, "answer.</w>": 3567, "cher": 3568, "not.</w>": 3569, "others</w>": 3570, "otharrs</w>": 3571, "treat</w>": 3572, "fake</w>": 3573, "small,</w>": 3574, "wake</w>": 3575, "helps</w>": 3576, "dreamed</w>": 3577, "follow": 3578, "grumpy</w>": 3579, "picnic</w>": 3580, "dirt</w>": 3581, "hammo": 3582, "shop</w>": 3583, "ow!\"</w>": 3584, "ze": 3585, "exploring</w>": 3586, "explorin'</w>": 3587, "please?\"</w>": 3588, "mandy</w>": 3589, "now.\"</w>": 3590, "chea": 3591, "rh": 3592, "try.</w>": 3593, "birthday</w>": 3594, "games.</w>": 3595, "strange.</w>": 3596, "mouse.</w>": 3597, "hammock</w>": 3598, "upset.</w>": 3599, "argu": 3600, "fooli": 3601, "life</w>": 3602, "lift</w>": 3603, "job,</w>": 3604, "generous</w>": 3605, "invited</w>": 3606, "added</w>": 3607, "obedi": 3608, "work": 3609, "tele": 3610, "delica": 3611, "path</w>": 3612, "berries</w>": 3613, "sni": 3614, "toda": 3615, "town.</w>": 3616, "deliciou": 3617, "dance.</w>": 3618, "money</w>": 3619, "wag": 3620, "girl's</w>": 3621, "ones.</w>": 3622, "toma": 3623, "see.</w>": 3624, "stone</w>": 3625, "branch.</w>": 3626, "scoo": 3627, "girl,</w>": 3628, "bby</w>": 3629, "dolls.</w>": 3630, "spin</w>": 3631, "doublo": 3632, "doubloons</w>": 3633, "doe": 3634, "measure</w>": 3635, "store,</w>": 3636, "lly's</w>": 3637, "mad.</w>": 3638, "seat</w>": 3639, "atta": 3640, "wall": 3641, "sug": 3642, ";</w>": 3643, "shapes.</w>": 3644, "mama": 3645, "cave.</w>": 3646, "water,</w>": 3647, "happily.</w>": 3648, "competi": 3649, "mate</w>": 3650, "lai": 3651, "already</w>": 3652, "bush</w>": 3653, "spun</w>": 3654, "ow!</w>": 3655, "problem.</w>": 3656, "ty,</w>": 3657, "dig</w>": 3658, "caterpillar</w>": 3659, "pau": 3660, "exclai": 3661, "abo": 3662, "flies</w>": 3663, "\"hi</w>": 3664, "step": 3665, "brother.</w>": 3666, "sheep</w>": 3667, "driver</w>": 3668, "drivarr</w>": 3669, "ges</w>": 3670, "bor</w>": 3671, "ze.</w>": 3672, "instead</w>": 3673, "colourful</w>": 3674, "reliev": 3675, "answer": 3676, "bunny.</w>": 3677, "fix": 3678, "ated</w>": 3679, "glow": 3680, "higher</w>": 3681, "higharr</w>": 3682, "ence</w>": 3683, "pend": 3684, "bugs</w>": 3685, "leaf</w>": 3686, "ppy</w>": 3687, "breath</w>": 3688, "plate</w>": 3689, "coin</w>": 3690, "wiped</w>": 3691, "change</w>": 3692, "nap": 3693, "thu": 3694, "wearin'</w>": 3695, "wearing</w>": 3696, "stories.</w>": 3697, "lily!</w>": 3698, "poured</w>": 3699, "!\".</w>": 3700, "hal": 3701, "cookie</w>": 3702, "placed</w>": 3703, "feet</w>": 3704, "care.</w>": 3705, "faster</w>": 3706, "fastarr</w>": 3707, "bald</w>": 3708, "knows</w>": 3709, "trust</w>": 3710, "naught": 3711, "waves</w>": 3712, "ff</w>": 3713, "sister</w>": 3714, "rubbed</w>": 3715, "ari": 3716, "shipmate</w>": 3717, "depen": 3718, "silly.</w>": 3719, "low.</w>": 3720, "rare</w>": 3721, "founta": 3722, "fragi": 3723, "weal": 3724, "geor": 3725, "important.</w>": 3726, "asleep.</w>": 3727, "singin'</w>": 3728, "singing</w>": 3729, "sy.</w>": 3730, "crayons</w>": 3731, "borrow</w>": 3732, "different.</w>": 3733, "check</w>": 3734, "themsel": 3735, "kinds</w>": 3736, "pig</w>": 3737, "dependa": 3738, "giggled</w>": 3739, "mine!\"</w>": 3740, "rescu": 3741, "berry</w>": 3742, "figure</w>": 3743, "o,</w>": 3744, "pete</w>": 3745, "zy.</w>": 3746, "heavy.</w>": 3747, "worm</w>": 3748, "independ": 3749, "swimming</w>": 3750, "swimmin'</w>": 3751, "neighb": 3752, "tidy</w>": 3753, "no!\"</w>": 3754, "mixed</w>": 3755, "village</w>": 3756, "warm": 3757, "block": 3758, "glass</w>": 3759, "apologi": 3760, "ancient</w>": 3761, "ded,</w>": 3762, "ven.</w>": 3763, "forward</w>": 3764, "job.</w>": 3765, "heart.</w>": 3766, "sounded</w>": 3767, "rude</w>": 3768, "daughter</w>": 3769, "daughtarr</w>": 3770, "kin</w>": 3771, "ow.</w>": 3772, "while.</w>": 3773, "yu": 3774, "perfect": 3775, "mine</w>": 3776, "arm.</w>": 3777, "deligh": 3778, "duck": 3779, "balloon.</w>": 3780, "oven</w>": 3781, "rich</w>": 3782, "crayons.</w>": 3783, "enor": 3784, "orig": 3785, "treasure.</w>": 3786, "cop": 3787, "fight.</w>": 3788, "seen.</w>": 3789, "toy,</w>": 3790, "line</w>": 3791, "instead.</w>": 3792, "ugly</w>": 3793, "origin": 3794, "life.</w>": 3795, "nur": 3796, "capta": 3797, "dru": 3798, "va": 3799, "litt": 3800, "journey</w>": 3801, "enti": 3802, "ase.</w>": 3803, "lazy</w>": 3804, "belonged</w>": 3805, "blue.</w>": 3806, "slipped</w>": 3807, "mrs.</w>": 3808, "memor": 3809, "wings</w>": 3810, "collect</w>": 3811, "i\u00e2\u20ac\u2122": 3812, "reminded</w>": 3813, "help!\"</w>": 3814, "serve</w>": 3815, "journey.</w>": 3816, "distance.</w>": 3817, "chair.</w>": 3818, "nest.</w>": 3819, "sam's</w>": 3820, "creative</w>": 3821, "ely,</w>": 3822, "edge</w>": 3823, "admired</w>": 3824, "bowl.</w>": 3825, "belong</w>": 3826, "plan</w>": 3827, "sister.</w>": 3828, "swings.</w>": 3829, "necklace</w>": 3830, "lolli": 3831, "choose</w>": 3832, "saw.</w>": 3833, "sing.</w>": 3834, "treat.</w>": 3835, "don\u00e2\u20ac\u2122t</w>": 3836, "fur</w>": 3837, "blanket.</w>": 3838, "sty</w>": 3839, "gate</w>": 3840, "umbre": 3841, "tunn": 3842, "pean": 3843, "sara,</w>": 3844, "parents.</w>": 3845, "color</w>": 3846, "pota": 3847, "cave</w>": 3848, "moder": 3849, "sala": 3850, "thanks</w>": 3851, "is.</w>": 3852, "ellie</w>": 3853, "best.</w>": 3854, "us.\"</w>": 3855, "search</w>": 3856, "matter</w>": 3857, "mattarr</w>": 3858, "refu": 3859, "search": 3860, "nap</w>": 3861, "cei": 3862, "ella</w>": 3863, "rode</w>": 3864, "stumbled</w>": 3865, "chose</w>": 3866, "places.</w>": 3867, "slide,</w>": 3868, "door,</w>": 3869, "\"be</w>": 3870, "lion.</w>": 3871, "snack.</w>": 3872, "clum": 3873, "found.</w>": 3874, "play,</w>": 3875, "vie": 3876, "spor": 3877, "slow</w>": 3878, "trip</w>": 3879, "street</w>": 3880, "oper": 3881, "ashamed.</w>": 3882, "ny,</w>": 3883, "shelf</w>": 3884, "polite</w>": 3885, "coco": 3886, "raced</w>": 3887, "ns</w>": 3888, "ars.</w>": 3889, "falls</w>": 3890, "sour</w>": 3891, "er?\"</w>": 3892, "means</w>": 3893, "kicked</w>": 3894, "here?\"</w>": 3895, "legs</w>": 3896, "honey</w>": 3897, "miss": 3898, "thin</w>": 3899, "do?\"</w>": 3900, "mail</w>": 3901, "one.\"</w>": 3902, "joined</w>": 3903, "tomorrow": 3904, "bake</w>": 3905, "over": 3906, "spend</w>": 3907, "blue": 3908, "benny.</w>": 3909, "puddle</w>": 3910, "stup": 3911, "birthday.</w>": 3912, "rushed</w>": 3913, "broad": 3914, "pet.</w>": 3915, "diamon": 3916, "kick</w>": 3917, "ei": 3918, "free.</w>": 3919, "fat</w>": 3920, "cked.</w>": 3921, "nice,</w>": 3922, "lady.</w>": 3923, "whistle</w>": 3924, "much": 3925, "nearby</w>": 3926, "broadside</w>": 3927, "mia,</w>": 3928, "oc": 3929, "sick</w>": 3930, "nat": 3931, "regu": 3932, "spagh": 3933, "spaghet": 3934, "spaghetti": 3935, "bella</w>": 3936, "ever!</w>": 3937, "hard,</w>": 3938, "guil": 3939, "tower</w>": 3940, "towarr</w>": 3941, "ffe": 3942, "valuable</w>": 3943, "juice.</w>": 3944, "right,</w>": 3945, "sett": 3946, "wealth": 3947, "frog.</w>": 3948, "scare</w>": 3949, "shirt</w>": 3950, "gift.</w>": 3951, "chair": 3952, "\"me</w>": 3953, "surprise,</w>": 3954, "prepar": 3955, "holds</w>": 3956, "flash": 3957, "\",</w>": 3958, "stopped.</w>": 3959, "places</w>": 3960, "ingre": 3961, "ingredi": 3962, "rex</w>": 3963, "ven": 3964, "teeth.</w>": 3965, "shone</w>": 3966, "thick</w>": 3967, "compas": 3968, "sharing</w>": 3969, "sharin'</w>": 3970, "other,</w>": 3971, "honey.</w>": 3972, "lly": 3973, "camer": 3974, "solve</w>": 3975, "seed": 3976, "sk</w>": 3977, "daisy.</w>": 3978, "dress": 3979, "flexi": 3980, "cy.</w>": 3981, "ear</w>": 3982, "open.</w>": 3983, "lost.</w>": 3984, "statu": 3985, "ale": 3986, "er,\"</w>": 3987, "free</w>": 3988, "sorry": 3989, "queen</w>": 3990, "balance</w>": 3991, "ls.</w>": 3992, "spea": 3993, "wer": 3994, "ati": 3995, "explored</w>": 3996, "mum.</w>": 3997, "counted</w>": 3998, "by": 3999, "drink</w>": 4000, "beet": 4001, "bad": 4002, "nobody</w>": 4003, "this?\"</w>": 4004, "meta": 4005, "banda": 4006, "card</w>": 4007, "nearby.</w>": 4008, "on!</w>": 4009, "nie</w>": 4010, "day!</w>": 4011, "open": 4012, "tied</w>": 4013, "too!</w>": 4014, "tears</w>": 4015, "cco": 4016, "\"now</w>": 4017, "cars,</w>": 4018, "cries.</w>": 4019, "too?\"</w>": 4020, "ined.</w>": 4021, "cage</w>": 4022, "pizza</w>": 4023, "oni": 4024, "pebb": 4025, "impressi": 4026, "popu": 4027, "match</w>": 4028, "croco": 4029, "unique</w>": 4030, "incredible</w>": 4031, "cross</w>": 4032, "crocodi": 4033, "ocean.</w>": 4034, "built</w>": 4035, "close.</w>": 4036, "sc": 4037, "fred</w>": 4038, "bird's</w>": 4039, "boy,</w>": 4040, "today.</w>": 4041, "clear</w>": 4042, "ready.</w>": 4043, "squa": 4044, "thought,</w>": 4045, "jack's</w>": 4046, "laughing.</w>": 4047, "destro": 4048, "hello.</w>": 4049, "voi": 4050, "uncle</w>": 4051, "name.</w>": 4052, "yelled</w>": 4053, "nods.</w>": 4054, "pige": 4055, "\"no</w>": 4056, "see,</w>": 4057, "enormous</w>": 4058, "snea": 4059, "teeth</w>": 4060, "cran": 4061, "smelly</w>": 4062, "persist": 4063, "harm": 4064, "knee.</w>": 4065, "cryst": 4066, "hot.</w>": 4067, "patter": 4068, "easy</w>": 4069, "compassi": 4070, "mo</w>": 4071, "\"ok": 4072, "painted</w>": 4073, "ms.</w>": 4074, "milk.</w>": 4075, "velo": 4076, "se!\"</w>": 4077, "ship.</w>": 4078, "doesn't</w>": 4079, "small.</w>": 4080, "add</w>": 4081, "ordin": 4082, "tweety</w>": 4083, "embarrassed</w>": 4084, "now!\"</w>": 4085, "dered</w>": 4086, "encoura": 4087, "sunshine</w>": 4088, "grandma's</w>": 4089, "mistake.</w>": 4090, "carefully.</w>": 4091, "et,</w>": 4092, "\u00e2\u20ac\u0153let\u00e2\u20ac\u2122s</w>": 4093, "case</w>": 4094, "fall": 4095, "shoes.</w>": 4096, "basket.</w>": 4097, "empty</w>": 4098, "dad's</w>": 4099, "tches</w>": 4100, "juicy</w>": 4101, "umble</w>": 4102, "aunt</w>": 4103, "plants</w>": 4104, "soup.</w>": 4105, "envelo": 4106, "ment</w>": 4107, "you'll</w>": 4108, "notice</w>": 4109, "moon</w>": 4110, "sweet.</w>": 4111, "enthu": 4112, "brown": 4113, "enthusi": 4114, "wings.</w>": 4115, "train.</w>": 4116, "couch</w>": 4117, "squi": 4118, "bite.</w>": 4119, "penny</w>": 4120, "allowed</w>": 4121, "birdie</w>": 4122, "treats</w>": 4123, "teas": 4124, "nosy</w>": 4125, "delicious.</w>": 4126, "create</w>": 4127, "pengu": 4128, "n't.</w>": 4129, "\"please,</w>": 4130, "le.\"</w>": 4131, "locked</w>": 4132, "brilliant</w>": 4133, "bored.</w>": 4134, "wood</w>": 4135, "opens</w>": 4136, "lem": 4137, "fear": 4138, "shinin'</w>": 4139, "shining</w>": 4140, "one!</w>": 4141, "ert</w>": 4142, "love.</w>": 4143, "better.\"</w>": 4144, "we'll</w>": 4145, "key.</w>": 4146, "mornin'</w>": 4147, "ens.</w>": 4148, "morning</w>": 4149, "dea": 4150, "going.</w>": 4151, "washed</w>": 4152, "compu": 4153, "backyard</w>": 4154, "pok": 4155, "songs.</w>": 4156, "recei": 4157, "leo": 4158, "avo": 4159, "playe": 4160, "bubbles</w>": 4161, "bobo</w>": 4162, "dream.</w>": 4163, "obje": 4164, "modern</w>": 4165, "peeked</w>": 4166, "intelli": 4167, "spot,</w>": 4168, "suggested</w>": 4169, "friends.\"</w>": 4170, "sorts</w>": 4171, "kiss</w>": 4172, "reci": 4173, "barb": 4174, "shell</w>": 4175, "step</w>": 4176, "block</w>": 4177, "lla.</w>": 4178, "carrots</w>": 4179, "oa": 4180, "glue</w>": 4181, "old": 4182, "sed,</w>": 4183, "cat,</w>": 4184, "shore.</w>": 4185, "work,</w>": 4186, "hairy</w>": 4187, "grandpa": 4188, "neighbor</w>": 4189, "scissors</w>": 4190, "zoo</w>": 4191, "sally.</w>": 4192, "gate.</w>": 4193, "der.</w>": 4194, "noisy</w>": 4195, "\"how</w>": 4196, "minutes,</w>": 4197, "lean": 4198, "bigge": 4199, "le!</w>": 4200, "spilled</w>": 4201, "sleep</w>": 4202, "zip</w>": 4203, "gry,</w>": 4204, "unusual</w>": 4205, "bounce</w>": 4206, "jer": 4207, "spray</w>": 4208, "s:</w>": 4209, "ribb": 4210, "dave</w>": 4211, "scarf</w>": 4212, "worry.</w>": 4213, "univer": 4214, "selfish</w>": 4215, "gotten</w>": 4216, "sandwich</w>": 4217, "lunch</w>": 4218, "delicate</w>": 4219, "ocean</w>": 4220, "hop": 4221, "charm": 4222, "gho": 4223, "knight</w>": 4224, "joe.</w>": 4225, "knee</w>": 4226, "shed.</w>": 4227, "chicken</w>": 4228, "wrap</w>": 4229, "beautiful": 4230, "seek</w>": 4231, "fluffy.</w>": 4232, "anny</w>": 4233, "moms</w>": 4234, "\"let</w>": 4235, "competiti": 4236, "came.</w>": 4237, "together!\"</w>": 4238, "shan": 4239, "mush": 4240, "happen.</w>": 4241, "ready,</w>": 4242, "cerea": 4243, "emma": 4244, "tro": 4245, "mommy!</w>": 4246, "\"stop": 4247, "au": 4248, "rocks.</w>": 4249, "clown</w>": 4250, "gor": 4251, "hours</w>": 4252, "hen": 4253, "weird</w>": 4254, "lola</w>": 4255, "exciting</w>": 4256, "excitin'</w>": 4257, "hamm": 4258, "tightly.</w>": 4259, "man's</w>": 4260, "song</w>": 4261, "ctor.</w>": 4262, "coming.</w>": 4263, "couldn\u00e2\u20ac\u2122t</w>": 4264, "vani": 4265, "cheerful</w>": 4266, "print</w>": 4267, "shanty</w>": 4268, "respect": 4269, "adventurous</w>": 4270, "regular</w>": 4271, "coa": 4272, "stars.</w>": 4273, "sh,</w>": 4274, "gloom": 4275, "atti": 4276, "triang": 4277, "turtle</w>": 4278, "mia's</w>": 4279, "freez": 4280, "lemon": 4281, "bent</w>": 4282, "topu": 4283, "waiting</w>": 4284, "waitin'</w>": 4285, "gun": 4286, "ice-": 4287, "wid": 4288, "bas": 4289, "octopu": 4290, "drop</w>": 4291, "original</w>": 4292, "whale</w>": 4293, "curta": 4294, "ep,</w>": 4295, "nemo</w>": 4296, "arms.</w>": 4297, "paint.</w>": 4298, "true</w>": 4299, "meant</w>": 4300, "miss</w>": 4301, "hang</w>": 4302, "e?</w>": 4303, "snuggled</w>": 4304, "sara's</w>": 4305, "george</w>": 4306, "puppy.</w>": 4307, "hum": 4308, "ing?</w>": 4309, "tape</w>": 4310, "attra": 4311, "lily,\"</w>": 4312, "pian": 4313, "blin": 4314, "pool.</w>": 4315, "rocket</w>": 4316, "good,</w>": 4317, "asleep</w>": 4318, "pool</w>": 4319, "branch": 4320, "carto": 4321, "af.</w>": 4322, "tough</w>": 4323, "fly": 4324, "them.\"</w>": 4325, "rude.</w>": 4326, "vase</w>": 4327, "couch.</w>": 4328, "cle.</w>": 4329, "umber": 4330, "sighed</w>": 4331, "le!\"</w>": 4332, "excitement.</w>": 4333, "wrong,</w>": 4334, "stairs</w>": 4335, "mari": 4336, "nod.</w>": 4337, "sparkled</w>": 4338, "puzzle</w>": 4339, "oven.</w>": 4340, "name?\"</w>": 4341, "snack</w>": 4342, "miser": 4343, "night": 4344, "act</w>": 4345, "dest</w>": 4346, "away.\"</w>": 4347, "\"hello</w>": 4348, "cycle</w>": 4349, "had.</w>": 4350, "dry.</w>": 4351, "over,</w>": 4352, "patient.</w>": 4353, "disgu": 4354, "shop.</w>": 4355, "slid</w>": 4356, "medicine</w>": 4357, "ies</w>": 4358, "stom": 4359, "above</w>": 4360, "toby</w>": 4361, "jungle.</w>": 4362, "dirt.</w>": 4363, "run.</w>": 4364, "spon": 4365, "unknown</w>": 4366, "selfish.</w>": 4367, "od.</w>": 4368, "swings</w>": 4369, "swin's</w>": 4370, "comfortable.</w>": 4371, "baby.</w>": 4372, "ruined</w>": 4373, "proudly</w>": 4374, "hung</w>": 4375, "d?\"</w>": 4376, "amy.</w>": 4377, "saur": 4378, "do,</w>": 4379, "princess.</w>": 4380, "separ": 4381, "ostri": 4382, "feet.</w>": 4383, "away!\"</w>": 4384, "mike</w>": 4385, "chirp": 4386, "cryin'</w>": 4387, "crying</w>": 4388, "or,</w>": 4389, "ended</w>": 4390, "relieved.</w>": 4391, "\"go</w>": 4392, "joey</w>": 4393, "soft.</w>": 4394, "clouds.</w>": 4395, "easi": 4396, "tin": 4397, "-year": 4398, "curious,</w>": 4399, "\"ya": 4400, "duck.</w>": 4401, "vide": 4402, "dragon.</w>": 4403, "ough.</w>": 4404, "ggy</w>": 4405, "eyes,</w>": 4406, "you!</w>": 4407, "present</w>": 4408, "knowing</w>": 4409, "knowin'</w>": 4410, "secon": 4411, "wealthy</w>": 4412, "wind.</w>": 4413, "happy.\"</w>": 4414, "mov": 4415, "quickly.</w>": 4416, "sla": 4417, "fruits</w>": 4418, "biggest</w>": 4419, "ddy.</w>": 4420, "big.</w>": 4421, "tv</w>": 4422, "imagined</w>": 4423, "hide": 4424, "intellig": 4425, "band-": 4426, "band-a": 4427, "alli": 4428, "mumm": 4429, "number": 4430, "ters</w>": 4431, "compassion": 4432, "mom?\"</w>": 4433, "left.</w>": 4434, "dinosaur": 4435, "peter</w>": 4436, "petarr</w>": 4437, "sy": 4438, "gira": 4439, "attracti": 4440, "home.\"</w>": 4441, "warned</w>": 4442, "eri": 4443, "ducky</w>": 4444, "batter": 4445, "anymore": 4446, "pain</w>": 4447, "\"they</w>": 4448, "trum": 4449, "ann</w>": 4450, "mom,\"</w>": 4451, "metal</w>": 4452, "aye</w>": 4453, "messa": 4454, "talkin'</w>": 4455, "ador": 4456, "talking</w>": 4457, "four</w>": 4458, "squirrel.</w>": 4459, "cheered.</w>": 4460, "standing</w>": 4461, "standin'</w>": 4462, "river</w>": 4463, "rivarr</w>": 4464, "fast,</w>": 4465, "lt.</w>": 4466, "afraid.</w>": 4467, "trouble": 4468, "ting,</w>": 4469, "snacks</w>": 4470, "foot": 4471, "kes.</w>": 4472, "hipp": 4473, "bridge</w>": 4474, "songs</w>": 4475, "grateful.</w>": 4476, "distur": 4477, "hidin'</w>": 4478, "hiding</w>": 4479, "tried,</w>": 4480, "clap</w>": 4481, "food,</w>": 4482, "brocco": 4483, "john.</w>": 4484, "broccoli": 4485, "bill</w>": 4486, "berries.</w>": 4487, "normal</w>": 4488, "\"give</w>": 4489, "\"if</w>": 4490, "hospital.</w>": 4491, "course</w>": 4492, "lad": 4493, "act": 4494, "park": 4495, "gori": 4496, "thear": 4497, "balls</w>": 4498, "swan</w>": 4499, "sweethear": 4500, "soap</w>": 4501, "\"please</w>": 4502, "leopar": 4503, "shake</w>": 4504, "doctor": 4505, "ordinary</w>": 4506, "king": 4507, "clever</w>": 4508, "clevarr</w>": 4509, "note": 4510, "kiss.</w>": 4511, "difficult</w>": 4512, "alliga": 4513, "pressed</w>": 4514, "pretty!\"</w>": 4515, "bear,</w>": 4516, "tray</w>": 4517, "afterno": 4518, "fau": 4519, "heli": 4520, "impressed</w>": 4521, "discover": 4522, "smoke</w>": 4523, "ary.</w>": 4524, "pass</w>": 4525, "friend's</w>": 4526, "bossy</w>": 4527, "fur.</w>": 4528, "dess": 4529, "bye,</w>": 4530, "smooth": 4531, "squea": 4532, "ges.</w>": 4533, "dependable</w>": 4534, "bread.</w>": 4535, "motor": 4536, "of.</w>": 4537, "envi": 4538, "resta": 4539, "restaur": 4540, "treats.</w>": 4541, "soon.\"</w>": 4542, "read.</w>": 4543, "cage.</w>": 4544, "ward,</w>": 4545, "own.</w>": 4546, "singing.</w>": 4547, "messy</w>": 4548, "scatt": 4549, "laughin'</w>": 4550, "laughing</w>": 4551, "mud.</w>": 4552, "ous": 4553, "filth": 4554, "understand?\"</w>": 4555, "ps.</w>": 4556, "did,</w>": 4557, "ground,</w>": 4558, "kim</w>": 4559, "rin'</w>": 4560, "treasure": 4561, "ring</w>": 4562, "enthusia": 4563, "ok.</w>": 4564, "organiz": 4565, "helicop": 4566, "quarre": 4567, "drops</w>": 4568, "one!\"</w>": 4569, "booty</w>": 4570, "bedro": 4571, "bedroom</w>": 4572, "zoo.</w>": 4573, "off,</w>": 4574, "town,</w>": 4575, "birds,</w>": 4576, "dove</w>": 4577, "star.</w>": 4578, "dug</w>": 4579, "jelly": 4580, "\"a</w>": 4581, "bounced</w>": 4582, "help!</w>": 4583, "tick": 4584, "tightly</w>": 4585, "stones</w>": 4586, "hello</w>": 4587, "ve!</w>": 4588, "sell</w>": 4589, "compla": 4590, "shoot</w>": 4591, "fall.</w>": 4592, "apple.</w>": 4593, "kang": 4594, "fas": 4595, "kangar": 4596, "loo": 4597, "tired,</w>": 4598, "jumps</w>": 4599, "puni": 4600, "map</w>": 4601, "bug.</w>": 4602, "expe": 4603, "twirled</w>": 4604, "lead</w>": 4605, "chubby</w>": 4606, "lamp</w>": 4607, "cing</w>": 4608, "cin'</w>": 4609, "brave,</w>": 4610, "jumpin'</w>": 4611, "path.</w>": 4612, "jumping</w>": 4613, "ezed</w>": 4614, "whisk": 4615, "gaz": 4616, "tv.</w>": 4617, "viol": 4618, "mine.</w>": 4619, "ny's</w>": 4620, "lous</w>": 4621, "aer": 4622, "crown</w>": 4623, "rub</w>": 4624, "ery</w>": 4625, "tommy.</w>": 4626, "kite.</w>": 4627, "ation</w>": 4628, "goat</w>": 4629, "aerop": 4630, "aeroplan": 4631, "ott": 4632, "bathtu": 4633, "grown": 4634, "pot.</w>": 4635, "shr": 4636, "saur</w>": 4637, "dinosaur</w>": 4638, "spoon.</w>": 4639, "vol": 4640, "bone</w>": 4641, "practiced</w>": 4642, "lila.</w>": 4643, "finger.</w>": 4644, "plane.</w>": 4645, "vy</w>": 4646, "right": 4647, "chest</w>": 4648, "changed</w>": 4649, "practice</w>": 4650, "find.</w>": 4651, "quite</w>": 4652, "witch</w>": 4653, "knife</w>": 4654, "invit": 4655, "true.</w>": 4656, "\u00e2\u20ac\u0153what</w>": 4657, "goodbye,</w>": 4658, "mimi": 4659, "spoke</w>": 4660, "oped</w>": 4661, "stretched</w>": 4662, "bigger.</w>": 4663, "roo": 4664, "playful</w>": 4665, "interesting</w>": 4666, "interestin'</w>": 4667, "gold</w>": 4668, "naughty.</w>": 4669, "monster.</w>": 4670, "given</w>": 4671, "doctor.</w>": 4672, "jog</w>": 4673, "gun</w>": 4674, "ten.</w>": 4675, "starts</w>": 4676, "cushi": 4677, "wheel</w>": 4678, "tummy</w>": 4679, "ung</w>": 4680, "later.</w>": 4681, "yogur": 4682, "meadow</w>": 4683, "ear.</w>": 4684, "grabs</w>": 4685, "impro": 4686, "everything.</w>": 4687, "tall": 4688, "chew</w>": 4689, "stirred</w>": 4690, "nods</w>": 4691, "sweetie.</w>": 4692, "once,</w>": 4693, "flag</w>": 4694, "dinner</w>": 4695, "dinnarr</w>": 4696, "\"well,</w>": 4697, "jealous</w>": 4698, "humble</w>": 4699, "ve.\"</w>": 4700, "sophie</w>": 4701, "jungle</w>": 4702, "didn\u00e2\u20ac\u2122t</w>": 4703, "even": 4704, "confused</w>": 4705, "pale</w>": 4706, "organized</w>": 4707, "roar": 4708, "gged.</w>": 4709, "mum,</w>": 4710, "graceful</w>": 4711, "shor": 4712, "towel</w>": 4713, "amazing.</w>": 4714, "button.</w>": 4715, "bitt": 4716, "sign.</w>": 4717, "sugar</w>": 4718, "reco": 4719, "hose</w>": 4720, "bottom</w>": 4721, "higher.</w>": 4722, "strugg": 4723, "seem</w>": 4724, "lily?\"</w>": 4725, "show.</w>": 4726, "costu": 4727, "corner.</w>": 4728, "aho": 4729, "\"stop</w>": 4730, "hats</w>": 4731, "howe": 4732, "delicious!</w>": 4733, "elephan": 4734, "muse": 4735, "mommy's</w>": 4736, "road</w>": 4737, "past</w>": 4738, "gni": 4739, "comm": 4740, "guard</w>": 4741, "recogni": 4742, "closet.</w>": 4743, "run,</w>": 4744, "on!\"</w>": 4745, "truck": 4746, "fair.</w>": 4747, "eras": 4748, "hero</w>": 4749, "forgave</w>": 4750, "vegetables</w>": 4751, "we're</w>": 4752, "top,</w>": 4753, "rainbow": 4754, "paid</w>": 4755, "beha": 4756, "lily!\"</w>": 4757, "thoughtful</w>": 4758, "jack,</w>": 4759, "decorate</w>": 4760, "for.</w>": 4761, "sour": 4762, "ror</w>": 4763, "bags</w>": 4764, "make": 4765, "cheese.</w>": 4766, "laughed,</w>": 4767, "rainbow.</w>": 4768, "finds</w>": 4769, "swing,</w>": 4770, "energ": 4771, "leave.</w>": 4772, "-old</w>": 4773, "picture": 4774, "apples.</w>": 4775, "himself,</w>": 4776, "twink": 4777, "jar.</w>": 4778, "boy's</w>": 4779, "mom.\"</w>": 4780, "gold": 4781, "sort</w>": 4782, "sent</w>": 4783, "cact": 4784, "alex</w>": 4785, "admire</w>": 4786, "se?\"</w>": 4787, "pillow</w>": 4788, "back!\"</w>": 4789, "talk.</w>": 4790, "garage.</w>": 4791, "angel</w>": 4792, "buck": 4793, "volcan": 4794, "meda": 4795, "anyone.</w>": 4796, "hoppin'</w>": 4797, "reliable</w>": 4798, "yes!</w>": 4799, "chal": 4800, "hopping</w>": 4801, "frustrated</w>": 4802, "guess</w>": 4803, "eld</w>": 4804, "more,</w>": 4805, "sty.</w>": 4806, "on.\"</w>": 4807, "tripped</w>": 4808, "terrible</w>": 4809, "wand</w>": 4810, "had": 4811, "prun": 4812, "leg.</w>": 4813, "tting</w>": 4814, "ttin'</w>": 4815, "stops</w>": 4816, "books,</w>": 4817, "full.</w>": 4818, "where.</w>": 4819, "puddle.</w>": 4820, "spider</w>": 4821, "spidarr</w>": 4822, "broke.</w>": 4823, "pala": 4824, "man,</w>": 4825, "faces</w>": 4826, "bees</w>": 4827, "appreci": 4828, "now?\"</w>": 4829, "sandy</w>": 4830, "sudden,</w>": 4831, "captain's</w>": 4832, "gs,</w>": 4833, "cookie.</w>": 4834, "owner.</w>": 4835, "are.</w>": 4836, "look!</w>": 4837, "eggs</w>": 4838, "school</w>": 4839, "roar</w>": 4840, "frustrated.</w>": 4841, "cc": 4842, "doing.</w>": 4843, "word.</w>": 4844, "shri": 4845, "stared</w>": 4846, "goose</w>": 4847, "net.</w>": 4848, "reinde": 4849, "cel": 4850, "pirate</w>": 4851, "march</w>": 4852, "barre": 4853, "importan": 4854, "by,</w>": 4855, "gifted</w>": 4856, "john's</w>": 4857, "sprink": 4858, "avoca": 4859, "quarters</w>": 4860, "sighed.</w>": 4861, "orang": 4862, "grown-": 4863, "card": 4864, "polly</w>": 4865, "y:</w>": 4866, "dolphin</w>": 4867, "coat.</w>": 4868, "pulls</w>": 4869, "gri": 4870, "spoiled</w>": 4871, "rever": 4872, "behin": 4873, "daddy,</w>": 4874, "circle</w>": 4875, "lively</w>": 4876, "laund": 4877, "billy.</w>": 4878, "shut</w>": 4879, "fruit.</w>": 4880, "popular</w>": 4881, "i\u00e2\u20ac\u2122m</w>": 4882, "paul</w>": 4883, "clar": 4884, "sleepy.</w>": 4885, "\"he</w>": 4886, "obedient</w>": 4887, "mirror</w>": 4888, "should": 4889, "dogs</w>": 4890, "made.</w>": 4891, "buttons</w>": 4892, "meadow.</w>": 4893, "that\u00e2\u20ac\u2122s</w>": 4894, "appeared.</w>": 4895, "coffe": 4896, "ky</w>": 4897, "ino": 4898, "peda": 4899, "expensive</w>": 4900, "away!</w>": 4901, "yuck": 4902, "organize</w>": 4903, "experi": 4904, "ise</w>": 4905, "pour</w>": 4906, "shopkeep": 4907, "ride.</w>": 4908, "wo": 4909, "happen</w>": 4910, "snacks.</w>": 4911, "however,</w>": 4912, "samm": 4913, "paper": 4914, "fil": 4915, "is:</w>": 4916, "thing,</w>": 4917, "shark</w>": 4918, "s?</w>": 4919, "sneez": 4920, "kitchen,</w>": 4921, "respon": 4922, "lights</w>": 4923, "wash": 4924, "eye</w>": 4925, "mountain.</w>": 4926, "bugs.</w>": 4927, "couldn't.</w>": 4928, "safe.\"</w>": 4929, "super": 4930, "wned</w>": 4931, "sausa": 4932, "shru": 4933, "learnt</w>": 4934, "al,</w>": 4935, "magg": 4936, "value</w>": 4937, "displa": 4938, "ade</w>": 4939, "stubborn</w>": 4940, "crawl</w>": 4941, "bul": 4942, "\u00e2\u20ac\u0153yes,</w>": 4943, "chew": 4944, "delighted</w>": 4945, "ahoy</w>": 4946, "fold</w>": 4947, "he'd</w>": 4948, "ses,</w>": 4949, "ambu": 4950, "coins</w>": 4951, "oy": 4952, "nurse</w>": 4953, "leaned</w>": 4954, "ambulan": 4955, "gol": 4956, "toes</w>": 4957, "banana</w>": 4958, "tremb": 4959, "papa</w>": 4960, "lucki": 4961, "ger": 4962, "ashamed</w>": 4963, "a,</w>": 4964, "bre": 4965, "mbo": 4966, "safe,</w>": 4967, "along.</w>": 4968, "basket": 4969, "knock</w>": 4970, "other's</w>": 4971, "tomorrow.</w>": 4972, "henry</w>": 4973, "mirr": 4974, "sleepy</w>": 4975, "pushes</w>": 4976, "ila": 4977, "looked,</w>": 4978, "sounds.</w>": 4979, "nit": 4980, "dolls,</w>": 4981, "hot": 4982, "turn.</w>": 4983, "clumsy</w>": 4984, "yach": 4985, "wagon</w>": 4986, "shakes</w>": 4987, "checked</w>": 4988, "useful</w>": 4989, "zoomed</w>": 4990, "eager": 4991, "special,</w>": 4992, "summ": 4993, "tent</w>": 4994, "pumpkin</w>": 4995, "ment.</w>": 4996, "screamed.</w>": 4997, "mole</w>": 4998, "trip.</w>": 4999, "kindness</w>": 5000, "troph": 5001, "animal.</w>": 5002, "clay</w>": 5003, "temp": 5004, "st.\"</w>": 5005, "tharrs</w>": 5006, "pen</w>": 5007, "grace</w>": 5008, "ckets</w>": 5009, "vet</w>": 5010, "availa": 5011, "pani": 5012, "ingredients</w>": 5013, "idea!</w>": 5014, "imagina": 5015, "distant</w>": 5016, "d,\"</w>": 5017, "mountain</w>": 5018, "record</w>": 5019, "brightly</w>": 5020, "embarrassed.</w>": 5021, "bill": 5022, "ef": 5023, "tools</w>": 5024, "son.</w>": 5025, "successful</w>": 5026, "wishes</w>": 5027, "weak</w>": 5028, "team</w>": 5029, "happening.</w>": 5030, "eg": 5031, "there's</w>": 5032, "inclu": 5033, "journa": 5034, "\u00e2\u20ac\u201c": 5035, "leg</w>": 5036, "joke</w>": 5037, "split</w>": 5038, "letter</w>": 5039, "lettarr</w>": 5040, "mech": 5041, "mechani": 5042, "clock</w>": 5043, "fox.</w>": 5044, "foolish</w>": 5045, "fly,</w>": 5046, "agreed,</w>": 5047, "rubb": 5048, "time.\"</w>": 5049, "dough</w>": 5050, "day.\"</w>": 5051, "send</w>": 5052, "dog's</w>": 5053, "bushes.</w>": 5054, "egg</w>": 5055, "boxes</w>": 5056, "chur": 5057, "gentle.</w>": 5058, "me,\"</w>": 5059, "inse": 5060, "danny</w>": 5061, "pie</w>": 5062, "disappointed.</w>": 5063, "tag</w>": 5064, "itch</w>": 5065, "slipp": 5066, "crazy</w>": 5067, "fisher": 5068, "design</w>": 5069, "calling</w>": 5070, "callin'</w>": 5071, "foot</w>": 5072, "sword</w>": 5073, "ged.</w>": 5074, "\u00e2\u20ac\u201c</w>": 5075, "somewhere</w>": 5076, "healthy.</w>": 5077, "closel": 5078, "magaz": 5079, "jui": 5080, "whispered</w>": 5081, "belongs</w>": 5082, "stairs.</w>": 5083, "rope.</w>": 5084, "charlie</w>": 5085, "anyway.</w>": 5086, "dge.</w>": 5087, "ing,\"</w>": 5088, "zipp": 5089, "win.</w>": 5090, "bright.</w>": 5091, "better,</w>": 5092, "disagre": 5093, "ence.</w>": 5094, "wait.</w>": 5095, "cooked</w>": 5096, "shape</w>": 5097, "boring.</w>": 5098, "early</w>": 5099, "furnit": 5100, "annie</w>": 5101, "skip</w>": 5102, "fortun": 5103, "snowman.</w>": 5104, "nodded,</w>": 5105, "movie</w>": 5106, "lying</w>": 5107, "lyin'</w>": 5108, "sku": 5109, "monster": 5110, "poppy</w>": 5111, "fruit": 5112, "lucy's</w>": 5113, "paw</w>": 5114, "stretch</w>": 5115, "nice.\"</w>": 5116, "stir</w>": 5117, "here.\"</w>": 5118, "resi": 5119, "wards,</w>": 5120, "stuffed</w>": 5121, "corn.</w>": 5122, "factor": 5123, "line.</w>": 5124, "sir": 5125, "morning.</w>": 5126, "beautiful,</w>": 5127, "accep": 5128, "possi": 5129, "place": 5130, "law": 5131, "pat</w>": 5132, "lives</w>": 5133, "fish,</w>": 5134, "skir": 5135, "cow": 5136, "es.\"</w>": 5137, "world": 5138, "walking.</w>": 5139, "mosqui": 5140, "betwe": 5141, "drum</w>": 5142, "remember,</w>": 5143, "walls</w>": 5144, "acti": 5145, "scold": 5146, "ar,</w>": 5147, "men": 5148, "bath.</w>": 5149, "headed</w>": 5150, "soar</w>": 5151, "le's</w>": 5152, "questions.</w>": 5153, "bedroom.</w>": 5154, "moment,</w>": 5155, "cauli": 5156, "ggin'</w>": 5157, "gging</w>": 5158, "eager</w>": 5159, "eagarr</w>": 5160, "grass,</w>": 5161, "could,</w>": 5162, "raven</w>": 5163, "face,</w>": 5164, "fin</w>": 5165, "giving</w>": 5166, "givin'</w>": 5167, "building</w>": 5168, "buildin'</w>": 5169, "disappointed</w>": 5170, "note</w>": 5171, "trunk</w>": 5172, "mind.</w>": 5173, "boats</w>": 5174, "dull</w>": 5175, "bucket.</w>": 5176, "machine.</w>": 5177, "bandage</w>": 5178, "running.</w>": 5179, "frightened</w>": 5180, "brother,</w>": 5181, "our,</w>": 5182, "nervous</w>": 5183, "ks,</w>": 5184, "pan</w>": 5185, "dish": 5186, "c,</w>": 5187, "fragile</w>": 5188, "picnic.</w>": 5189, "band</w>": 5190, "visi": 5191, "visited</w>": 5192, "anda</w>": 5193, "dinner,</w>": 5194, "rhino": 5195, "orna": 5196, "come.</w>": 5197, "pped,</w>": 5198, "marched</w>": 5199, "interesting.</w>": 5200, "acor": 5201, "gloomy</w>": 5202, "empty.</w>": 5203, "dres": 5204, "ladder.</w>": 5205, "rele": 5206, "lemon</w>": 5207, "skelet": 5208, "kaya": 5209, "jazz": 5210, "village.</w>": 5211, "flexible</w>": 5212, "cozy.</w>": 5213, "bath</w>": 5214, "between</w>": 5215, "exclaimed.</w>": 5216, "beetle</w>": 5217, "hadn't</w>": 5218, "bloom": 5219, "idea,</w>": 5220, "giraff": 5221, "playground.</w>": 5222, "lilly</w>": 5223, "ately,</w>": 5224, "ever!\"</w>": 5225, "siz": 5226, "symbo": 5227, "corner</w>": 5228, "cornarr</w>": 5229, "mom!</w>": 5230, "answered,</w>": 5231, "yourself</w>": 5232, "langu": 5233, "waited.</w>": 5234, "rying</w>": 5235, "throws</w>": 5236, "enough.</w>": 5237, "beach,</w>": 5238, "steal</w>": 5239, "disgust": 5240, "ring": 5241, "yours.</w>": 5242, "shirt.</w>": 5243, "rhinocer": 5244, "cover</w>": 5245, "covarr</w>": 5246, "crane</w>": 5247, "branches</w>": 5248, "mes.</w>": 5249, "rhinocero": 5250, "content.</w>": 5251, "served</w>": 5252, "modest</w>": 5253, "what": 5254, "far.</w>": 5255, "space</w>": 5256, "ax": 5257, "cheap</w>": 5258, "mpo": 5259, "rev": 5260, "fireman</w>": 5261, "bored</w>": 5262, "serious</w>": 5263, "socc": 5264, "cart</w>": 5265, "applau": 5266, "-year-old</w>": 5267, "jill.</w>": 5268, "crayon</w>": 5269, "market</w>": 5270, "guitar</w>": 5271, "ns.</w>": 5272, "behind.</w>": 5273, "doll,</w>": 5274, "hide.</w>": 5275, "ents,</w>": 5276, "insist": 5277, "g!</w>": 5278, "laughs.</w>": 5279, "intro": 5280, "introdu": 5281, "safely</w>": 5282, "abi": 5283, "refused</w>": 5284, "lef": 5285, "spir": 5286, "smells</w>": 5287, "repair</w>": 5288, "cane</w>": 5289, "wrong": 5290, "x,</w>": 5291, "imagine</w>": 5292, "jimm": 5293, "yi": 5294, "bull</w>": 5295, "messy.</w>": 5296, "us?\"</w>": 5297, "mand": 5298, "surroun": 5299, "sub": 5300, "stud": 5301, "steps</w>": 5302, "much,</w>": 5303, "grow.</w>": 5304, "ending</w>": 5305, "endin'</w>": 5306, "wipe</w>": 5307, "instead,</w>": 5308, "return</w>": 5309, "octopus</w>": 5310, "ducks.</w>": 5311, "troub": 5312, "wood": 5313, "spaghetti</w>": 5314, "sunglas": 5315, "bathroom.</w>": 5316, "string</w>": 5317, "strin'</w>": 5318, "shells</w>": 5319, "mom!\"</w>": 5320, "streng": 5321, "comfort</w>": 5322, "polish</w>": 5323, "leaf.</w>": 5324, "dangerou": 5325, "three": 5326, "welcome</w>": 5327, "study</w>": 5328, "\"your</w>": 5329, "base": 5330, "swung</w>": 5331, "days,</w>": 5332, "greed": 5333, "enjoying</w>": 5334, "enjoyin'</w>": 5335, "revea": 5336, "seek.</w>": 5337, "balloons</w>": 5338, "crocodile</w>": 5339, "fighting.</w>": 5340, "led,</w>": 5341, "shouldn't</w>": 5342, "ash": 5343, "robe</w>": 5344, "popcorn</w>": 5345, "newspa": 5346, "closet</w>": 5347, "se,\"</w>": 5348, "roared</w>": 5349, "want.</w>": 5350, "unlock</w>": 5351, "toast</w>": 5352, "go.\"</w>": 5353, "father</w>": 5354, "everywhere,</w>": 5355, "exciting.</w>": 5356, "helpful.</w>": 5357, "band-aid</w>": 5358, "nee": 5359, "engine</w>": 5360, "tears.</w>": 5361, "pointing</w>": 5362, "pointin'</w>": 5363, "jerry</w>": 5364, "cone</w>": 5365, "slow.</w>": 5366, "microsco": 5367, "jam</w>": 5368, "staf": 5369, "cob": 5370, "this.</w>": 5371, "seeds</w>": 5372, "nowhere</w>": 5373, "compassionate</w>": 5374, "sk.</w>": 5375, "zebr": 5376, "ladder</w>": 5377, "laddarr</w>": 5378, "g!\"</w>": 5379, "mped</w>": 5380, "neck.</w>": 5381, "musici": 5382, "pencil</w>": 5383, "discu": 5384, "harry</w>": 5385, "cry,</w>": 5386, "cream": 5387, "too,\"</w>": 5388, "immedi": 5389, "independent</w>": 5390, "ckey</w>": 5391, "present.</w>": 5392, "grocer": 5393, "garden": 5394, "there?\"</w>": 5395, "cas": 5396, "tweetie</w>": 5397, "unifor": 5398, "atten": 5399, "later": 5400, "sight.</w>": 5401, "brace": 5402, "seal</w>": 5403, "millie</w>": 5404, "museu": 5405, "school,</w>": 5406, "ement.</w>": 5407, "outsid": 5408, "ants</w>": 5409, "rise</w>": 5410, "smile,</w>": 5411, "since</w>": 5412, "patient": 5413, "please.</w>": 5414, "poke</w>": 5415, "inve": 5416, "pisto": 5417, "ction</w>": 5418, "questions</w>": 5419, "coin.</w>": 5420, "swim.</w>": 5421, "\"here,</w>": 5422, "branches.</w>": 5423, "mild</w>": 5424, "smok": 5425, "investi": 5426, "perform</w>": 5427, "sofa": 5428, "maria</w>": 5429, "ade.</w>": 5430, "dur": 5431, "party,</w>": 5432, "break.</w>": 5433, "cree": 5434, "blue,</w>": 5435, "exer": 5436, "exerci": 5437, "neighbour": 5438, "mattre": 5439, "voice,</w>": 5440, "dog!\"</w>": 5441, "s'</w>": 5442, "intelligent</w>": 5443, "flapped</w>": 5444, "legs.</w>": 5445, "courage</w>": 5446, "ey": 5447, "how.</w>": 5448, "pigeon</w>": 5449, "turkey</w>": 5450, "ef.</w>": 5451, "\"anna,</w>": 5452, "chest.</w>": 5453, "pine</w>": 5454, "chim": 5455, "ately</w>": 5456, "\"we're</w>": 5457, "der,</w>": 5458, "tank</w>": 5459, "whistle.</w>": 5460, "frighten": 5461, "fauce": 5462, "welcomed</w>": 5463, "walk,</w>": 5464, "vall": 5465, "toi": 5466, "cherri": 5467, "isn't</w>": 5468, "lizard</w>": 5469, "us!\"</w>": 5470, "second</w>": 5471, "flashlight</w>": 5472, "carrots.</w>": 5473, "either.</w>": 5474, "know,\"</w>": 5475, "brin": 5476, "fully</w>": 5477, "\"ow,</w>": 5478, "laughs</w>": 5479, "before,</w>": 5480, "houses</w>": 5481, "loudly.</w>": 5482, "busy.</w>": 5483, "hero": 5484, "pond,</w>": 5485, "travel</w>": 5486, "regre": 5487, "suit</w>": 5488, "\"yes!</w>": 5489, "dizzy</w>": 5490, "james</w>": 5491, "table,</w>": 5492, "expensive.</w>": 5493, "sweat": 5494, "crystal</w>": 5495, "enthusiastic</w>": 5496, "times</w>": 5497, "hurt": 5498, "pilot</w>": 5499, "necklace.</w>": 5500, "color.</w>": 5501, "ostrich</w>": 5502, "sts</w>": 5503, "they": 5504, "twist</w>": 5505, "hospital</w>": 5506, "visit.</w>": 5507, "disappeared</w>": 5508, "nervous.</w>": 5509, "pe,</w>": 5510, "drink.</w>": 5511, "kids,</w>": 5512, "brownie</w>": 5513, "chimne": 5514, "miner": 5515, "dishwash": 5516, "excitedly</w>": 5517, "adorable</w>": 5518, "nut</w>": 5519, "cobwe": 5520, "scared": 5521, "\u00e2\u20ac\u0153it\u00e2\u20ac\u2122s</w>": 5522, "tony</w>": 5523, "him!</w>": 5524, "hill,</w>": 5525, "mark": 5526, "kate</w>": 5527, "answered</w>": 5528, "wags</w>": 5529, "passpor": 5530, "neck</w>": 5531, "tidy.</w>": 5532, "swings,</w>": 5533, "ems</w>": 5534, "maggie</w>": 5535, "smilin'</w>": 5536, "smiling</w>": 5537, "snake.</w>": 5538, "toa": 5539, "thief</w>": 5540, "leopard</w>": 5541, "gasped</w>": 5542, "scarf.</w>": 5543, "golden</w>": 5544, "disappeared.</w>": 5545, "shy.</w>": 5546, "musta": 5547, "climb.</w>": 5548, "sauce</w>": 5549, "escape</w>": 5550, "stack</w>": 5551, "impressive</w>": 5552, "fortunately,</w>": 5553, "stone.</w>": 5554, "cries</w>": 5555, "fell.</w>": 5556, "vel.</w>": 5557, "barn</w>": 5558, "tis": 5559, "creatures</w>": 5560, "strong,</w>": 5561, "deep": 5562, "welcome.</w>": 5563, "played,</w>": 5564, "forward,</w>": 5565, "others,</w>": 5566, "ning,</w>": 5567, "string.</w>": 5568, "raz": 5569, "happiness</w>": 5570, "bun</w>": 5571, "teacher.</w>": 5572, "doing?</w>": 5573, "sister": 5574, "class": 5575, "briney</w>": 5576, "feathers.</w>": 5577, "ction": 5578, "cup.</w>": 5579, "ring.</w>": 5580, "oyst": 5581, "handle</w>": 5582, "needle</w>": 5583, "ears</w>": 5584, "shadow</w>": 5585, "shout.</w>": 5586, "bean": 5587, "mother.</w>": 5588, "dreams</w>": 5589, "cool!\"</w>": 5590, "yarn</w>": 5591, "tucked</w>": 5592, "trucks.</w>": 5593, "green.</w>": 5594, "pop</w>": 5595, "support</w>": 5596, "bright,</w>": 5597, "plate.</w>": 5598, "judge</w>": 5599, "yummy!</w>": 5600, "envelope</w>": 5601, "two,</w>": 5602, "bridge.</w>": 5603, "playground</w>": 5604, "zebra</w>": 5605, "ies.</w>": 5606, "stuck.</w>": 5607, "sun,</w>": 5608, "\"yes</w>": 5609, "yard,</w>": 5610, "beak.</w>": 5611, "barn.</w>": 5612, "yum": 5613, "here!\"</w>": 5614, "gently.</w>": 5615, "harmless</w>": 5616, "hurts</w>": 5617, "\"timmy,</w>": 5618, "fighting</w>": 5619, "fightin'</w>": 5620, "jacket</w>": 5621, "envious</w>": 5622, "alert</w>": 5623, "rescue</w>": 5624, "sprayed</w>": 5625, "celebrated</w>": 5626, "ch!\"</w>": 5627, "follows</w>": 5628, "delight.</w>": 5629, "ched,</w>": 5630, "\"see,</w>": 5631, "understo": 5632, "terin": 5633, "like.</w>": 5634, "fountain</w>": 5635, "ve!\"</w>": 5636, "strai": 5637, "peanu": 5638, "apologized</w>": 5639, "jet</w>": 5640, "hopes</w>": 5641, "visit": 5642, "arian</w>": 5643, "puzzle.</w>": 5644, "veterin": 5645, "fid": 5646, "cut.</w>": 5647, "fe.</w>": 5648, "secret.</w>": 5649, "mod": 5650, "learn.</w>": 5651, "ys,</w>": 5652, "workin'</w>": 5653, "working</w>": 5654, "plants.</w>": 5655, "panda</w>": 5656, "store": 5657, "ff.</w>": 5658, "pony</w>": 5659, "worth</w>": 5660, "using</w>": 5661, "usin'</w>": 5662, "scale</w>": 5663, "ffin": 5664, "shocked</w>": 5665, "meal</w>": 5666, "statue</w>": 5667, "cop</w>": 5668, "gum</w>": 5669, "popped</w>": 5670, "muffin": 5671, "za": 5672, "marry</w>": 5673, "seat.</w>": 5674, "st!\"</w>": 5675, "he's</w>": 5676, "dive</w>": 5677, "from.</w>": 5678, "hay</w>": 5679, "showin'</w>": 5680, "some.</w>": 5681, "showing</w>": 5682, "san": 5683, "fridge</w>": 5684, "celebrate</w>": 5685, "luckily,</w>": 5686, "ery.</w>": 5687, "torna": 5688, "iglo": 5689, "wast": 5690, "apr": 5691, "helme": 5692, "loved.</w>": 5693, "ved.</w>": 5694, "bracelet</w>": 5695, "wheels</w>": 5696, "ok?\"</w>": 5697, "swan": 5698, "blou": 5699, "shine</w>": 5700, "hat,</w>": 5701, "anywhere.</w>": 5702, "perfu": 5703, "problem</w>": 5704, "butterfl": 5705, "lead": 5706, "city</w>": 5707, "deer</w>": 5708, "dearr</w>": 5709, "place,</w>": 5710, "ise.</w>": 5711, "gorilla</w>": 5712, "chin'</w>": 5713, "ching</w>": 5714, "k.\"</w>": 5715, "lisa": 5716, "scolded</w>": 5717, "learnin'</w>": 5718, "learning</w>": 5719, "comb</w>": 5720, "peek</w>": 5721, "worked.</w>": 5722, "mommy!\"</w>": 5723, "jug</w>": 5724, "points</w>": 5725, "cricket</w>": 5726, "balls.</w>": 5727, "pain.</w>": 5728, "harsh</w>": 5729, "building.</w>": 5730, "hippo</w>": 5731, "buddy</w>": 5732, "ways.</w>": 5733, "\"here</w>": 5734, "mimi</w>": 5735, "slides</w>": 5736, "skin.</w>": 5737, "helmet</w>": 5738, "sniffed</w>": 5739, "recomm": 5740, "need.</w>": 5741, "ears.</w>": 5742, "roar.</w>": 5743, "arrow</w>": 5744, "circles</w>": 5745, "ignored</w>": 5746, "themselves.</w>": 5747, "accepted</w>": 5748, "oo</w>": 5749, "ation.</w>": 5750, "again!\"</w>": 5751, "n,</w>": 5752, "cereal</w>": 5753, "gy": 5754, "cabin": 5755, "back.\"</w>": 5756, "umbrella</w>": 5757, "televisi": 5758, "cute.</w>": 5759, "\"tim,</w>": 5760, "ert.</w>": 5761, "\"wow!</w>": 5762, "crossed</w>": 5763, "\"bye,</w>": 5764, "oak</w>": 5765, "padd": 5766, "marri": 5767, "package</w>": 5768, "shouts.</w>": 5769, "trusted</w>": 5770, "els</w>": 5771, "hugged.</w>": 5772, "exploring.</w>": 5773, "something,</w>": 5774, "alligator</w>": 5775, "left,</w>": 5776, "holi": 5777, "cube</w>": 5778, "cared</w>": 5779, "\u00e2\u20ac.</w>": 5780, "cakes</w>": 5781, "scream.</w>": 5782, "xi</w>": 5783, "catch": 5784, "mule</w>": 5785, "flower,</w>": 5786, "that!\"</w>": 5787, "island</w>": 5788, "cardboard</w>": 5789, "bubbles.</w>": 5790, "careless</w>": 5791, "diction": 5792, "en't</w>": 5793, "festi": 5794, "meant,</w>": 5795, "clear": 5796, "bell.</w>": 5797, "accept</w>": 5798, "horse.</w>": 5799, "ghost</w>": 5800, "bottle.</w>": 5801, "forgotten</w>": 5802, "created</w>": 5803, "\u00e2\u20ac\u0153you</w>": 5804, "view</w>": 5805, "died</w>": 5806, "jealou": 5807, "wned.</w>": 5808, "vegetables.</w>": 5809, "soft": 5810, "mirror.</w>": 5811, "minutes</w>": 5812, "breakfast.</w>": 5813, "cisi": 5814, "spirit</w>": 5815, "hand,</w>": 5816, "squeezed</w>": 5817, "tan": 5818, "clara</w>": 5819, "hoop</w>": 5820, "licks</w>": 5821, "mittens.</w>": 5822, "\"max,</w>": 5823, "trucks</w>": 5824, "ran,</w>": 5825, "approa": 5826, "decisi": 5827, "number</w>": 5828, "numbarr</w>": 5829, "rug</w>": 5830, "tool</w>": 5831, "press</w>": 5832, "perfect.</w>": 5833, "cen": 5834, "tweet</w>": 5835, "body.</w>": 5836, "sadly,</w>": 5837, "clever.</w>": 5838, "stove</w>": 5839, "waff": 5840, "hurry</w>": 5841, "candle</w>": 5842, "tent.</w>": 5843, "horn</w>": 5844, "skin</w>": 5845, "bubble</w>": 5846, "zzy</w>": 5847, "\"and</w>": 5848, "names</w>": 5849, "adventure,</w>": 5850, "lily.\"</w>": 5851, "jelly</w>": 5852, "vehi": 5853, "cloth.</w>": 5854, "poked</w>": 5855, "calend": 5856, "sandbox.</w>": 5857, "ped.</w>": 5858, "home": 5859, "dogs.</w>": 5860, "als</w>": 5861, "repea": 5862, "again?\"</w>": 5863, "seed</w>": 5864, "cold": 5865, "b,</w>": 5866, "camera</w>": 5867, "kangaroo</w>": 5868, "cycle.</w>": 5869, "il,</w>": 5870, "thri": 5871, "struct": 5872, "watch.</w>": 5873, "gone,</w>": 5874, "woods,</w>": 5875, "message</w>": 5876, "happiness.</w>": 5877, "fan</w>": 5878, "finding</w>": 5879, "findin'</w>": 5880, "penguin</w>": 5881, "camp": 5882, "sadly</w>": 5883, "refre": 5884, "oas": 5885, "leash</w>": 5886, "trouble</w>": 5887, "attach</w>": 5888, "elephant.</w>": 5889, "game,</w>": 5890, "laught": 5891, "entered</w>": 5892, "diamond</w>": 5893, "bee.</w>": 5894, "neat</w>": 5895, "herself,</w>": 5896, "city.</w>": 5897, "friendship</w>": 5898, "first.\"</w>": 5899, "salad</w>": 5900, "dizzy.</w>": 5901, "cake,</w>": 5902, "tion,</w>": 5903, "asking</w>": 5904, "askin'</w>": 5905, "themselves</w>": 5906, "content</w>": 5907, "round.</w>": 5908, "emma.</w>": 5909, "needed.</w>": 5910, "newspap": 5911, "adventure!</w>": 5912, "load": 5913, "dire": 5914, "attractive</w>": 5915, "hands,</w>": 5916, "ignorant</w>": 5917, "obi": 5918, "batt": 5919, "understood.</w>": 5920, "still.</w>": 5921, "invite</w>": 5922, "snack": 5923, "lee</w>": 5924, "head,</w>": 5925, "shiny,</w>": 5926, "human</w>": 5927, "creative.</w>": 5928, "plastic</w>": 5929, "pickin'</w>": 5930, "autom": 5931, "picking</w>": 5932, "machin": 5933, "automobi": 5934, "persistent</w>": 5935, "moon.</w>": 5936, "telling</w>": 5937, "tellin'</w>": 5938, "taxi</w>": 5939, "louder.</w>": 5940, "jeep</w>": 5941, "bel</w>": 5942, "rabbit,</w>": 5943, "peanut</w>": 5944, "chance</w>": 5945, "ceil": 5946, "reaches</w>": 5947, "one?\"</w>": 5948, "ction.</w>": 5949, "guilty</w>": 5950, "fairy.</w>": 5951, "ben,\"</w>": 5952, "\"sure": 5953, "weigh": 5954, "quiz": 5955, "p!</w>": 5956, "nore</w>": 5957, "golf</w>": 5958, "scissors.</w>": 5959, "rach": 5960, "grandma,</w>": 5961, "library</w>": 5962, "wish.</w>": 5963, "math</w>": 5964, "pal": 5965, "quiet": 5966, "you\u00e2\u20ac\u2122": 5967, "foun": 5968, "port.</w>": 5969, "collected</w>": 5970, "island.</w>": 5971, "sack.</w>": 5972, "half</w>": 5973, "in!</w>": 5974, "tooth</w>": 5975, "lled.</w>": 5976, "dress,</w>": 5977, "nod</w>": 5978, "angry,</w>": 5979, "remain": 5980, "loudly</w>": 5981, "fought</w>": 5982, "ings,</w>": 5983, "come,</w>": 5984, "stove.</w>": 5985, "deaf</w>": 5986, "anymore</w>": 5987, "\"because</w>": 5988, "holes</w>": 5989, "ignore</w>": 5990, "sheet</w>": 5991, "spot's</w>": 5992, "dancin'</w>": 5993, "dancing</w>": 5994, "ward.</w>": 5995, "sandwiches</w>": 5996, "monkey.</w>": 5997, "bet": 5998, "up.\"</w>": 5999, "smooth.</w>": 6000, "mask</w>": 6001, "bab": 6002, "object</w>": 6003, "..": 6004, "aw": 6005, "slept</w>": 6006, "pasta</w>": 6007, "\"did</w>": 6008, "calls</w>": 6009, "flute</w>": 6010, "happened": 6011, "fallen</w>": 6012, "whisper": 6013, "\"i'll</w>": 6014, "fisherman</w>": 6015, "earli": 6016, "excitement</w>": 6017, "friger": 6018, "belt</w>": 6019, "refriger": 6020, "tina</w>": 6021, "sarah's</w>": 6022, "'.</w>": 6023, "s\".</w>": 6024, "licen": 6025, "explain": 6026, "her!</w>": 6027, "dor</w>": 6028, "hurri": 6029, "separate</w>": 6030, "bury</w>": 6031, "eagerly</w>": 6032, "prev": 6033, "brothers.</w>": 6034, "vase.</w>": 6035, "load</w>": 6036, "square</w>": 6037, "gli": 6038, "nicely.</w>": 6039, "raise</w>": 6040, "sandwich.</w>": 6041, "clothes,</w>": 6042, "mary.</w>": 6043, "them?\"</w>": 6044, "moving</w>": 6045, "movin'</w>": 6046, "rob": 6047, "owl.</w>": 6048, "horn.</w>": 6049, "yed.</w>": 6050, "moms.</w>": 6051, "were.</w>": 6052, "immediately</w>": 6053, "things.\"</w>": 6054, "polite.</w>": 6055, "ly": 6056, "med,</w>": 6057, "poe": 6058, "compli": 6059, "disappear": 6060, "five</w>": 6061, "dish</w>": 6062, "wing.</w>": 6063, "tongu": 6064, "pillow": 6065, "paper,</w>": 6066, "tomato</w>": 6067, "promise.</w>": 6068, "stream</w>": 6069, "calm.</w>": 6070, "eaten</w>": 6071, "collar</w>": 6072, "decorati": 6073, "lucky.</w>": 6074, "crack</w>": 6075, "advice</w>": 6076, "gem</w>": 6077, "vendor</w>": 6078, "careful.\"</w>": 6079, "abiga": 6080, "explain</w>": 6081, "tiger</w>": 6082, "tigarr</w>": 6083, "melon</w>": 6084, "oli": 6085, "jellyfish</w>": 6086, "bumped</w>": 6087, "ply</w>": 6088, "book,</w>": 6089, "mouth": 6090, "weak.</w>": 6091, "stopped,</w>": 6092, "stupid</w>": 6093, "lia</w>": 6094, "unfortunately,</w>": 6095, "wandered</w>": 6096, "quick</w>": 6097, "permissi": 6098, "boat": 6099, "f,</w>": 6100, "tuna</w>": 6101, "days.</w>": 6102, "sty": 6103, "massa": 6104, "stubbor": 6105, "scooped</w>": 6106, "ending.</w>": 6107, "jazz</w>": 6108, "ly.\"</w>": 6109, "dark,</w>": 6110, "\"wow!\"</w>": 6111, "people's</w>": 6112, "ate.</w>": 6113, "truth.</w>": 6114, "she'd</w>": 6115, "achi": 6116, "yellow.</w>": 6117, "mechanic</w>": 6118, "cocoa</w>": 6119, "this,</w>": 6120, "bump": 6121, "wonder</w>": 6122, "wondarr</w>": 6123, "spike</w>": 6124, "dan</w>": 6125, "shell.</w>": 6126, "doing,</w>": 6127, "speed</w>": 6128, "rules.</w>": 6129, "case.</w>": 6130, "pinch</w>": 6131, "bit.</w>": 6132, "carrying</w>": 6133, "carryin'</w>": 6134, "shampo": 6135, "on?\"</w>": 6136, "wood.</w>": 6137, "mat": 6138, "thread</w>": 6139, "match": 6140, "before!</w>": 6141, "squash</w>": 6142, "yoga</w>": 6143, "hardly</w>": 6144, "amazing!</w>": 6145, "shout</w>": 6146, "end!</w>": 6147, "fork</w>": 6148, "paint": 6149, "ben!\"</w>": 6150, "waves.</w>": 6151, "eating,</w>": 6152, "soft,</w>": 6153, "bone.</w>": 6154, "pois": 6155, "rose.</w>": 6156, "complete</w>": 6157, "grin": 6158, "tommy,</w>": 6159, "resist</w>": 6160, "bang": 6161, "daughter.</w>": 6162, "cap</w>": 6163, "jo</w>": 6164, "everyday</w>": 6165, "parent</w>": 6166, "heal</w>": 6167, "ask.</w>": 6168, "funn": 6169, "wiz": 6170, "wheat</w>": 6171, "thirsty.</w>": 6172, "boat,</w>": 6173, "responsi": 6174, "vest</w>": 6175, "sue's</w>": 6176, "glad.</w>": 6177, "unpack</w>": 6178, "gen": 6179, "xious</w>": 6180, "peaceful.</w>": 6181, "office</w>": 6182, "anxious</w>": 6183, "toes.</w>": 6184, "rhy": 6185, "raft</w>": 6186, "colorful.</w>": 6187, "kid</w>": 6188, "test.</w>": 6189, "yell</w>": 6190, "track</w>": 6191, "grown-up": 6192, "sits</w>": 6193, "float": 6194, "fort</w>": 6195, "k!\"</w>": 6196, "wire</w>": 6197, "res</w>": 6198, "encouraged</w>": 6199, "radio</w>": 6200, "\"stop,</w>": 6201, "kindness.</w>": 6202, "buried</w>": 6203, "competitive</w>": 6204, "dust</w>": 6205, "mug</w>": 6206, "crun": 6207, "roof</w>": 6208, "tie.</w>": 6209, "butterflies</w>": 6210, "straight</w>": 6211, "me?</w>": 6212, "yummy!\"</w>": 6213, "fine.</w>": 6214, "twig</w>": 6215, "\"is</w>": 6216, "fai": 6217, "pillow.</w>": 6218, "anxi": 6219, "remove</w>": 6220, "\"yes!\"</w>": 6221, "strawberry</w>": 6222, "hockey</w>": 6223, "wobb": 6224, "fingers.</w>": 6225, "shoe</w>": 6226, "travel": 6227, "dried</w>": 6228, "earth": 6229, "tire</w>": 6230, "three,</w>": 6231, "grandpa.</w>": 6232, "crown.</w>": 6233, "tease</w>": 6234, "cupboard</w>": 6235, "hits</w>": 6236, "ice-cream</w>": 6237, "flav": 6238, "vine</w>": 6239, "destina": 6240, "prevent</w>": 6241, "help.\"</w>": 6242, "yourself": 6243, "triangle</w>": 6244, "rs</w>": 6245, "rumb": 6246, "barks</w>": 6247, "gun.</w>": 6248, "praised</w>": 6249, "wear.</w>": 6250, "okay,\"</w>": 6251, "floor,</w>": 6252, "mailbox</w>": 6253, "pretty,</w>": 6254, "en.\"</w>": 6255, "settled</w>": 6256, "doors</w>": 6257, "surprised,</w>": 6258, "loves.</w>": 6259, "hesit": 6260, "jump,</w>": 6261, "appreciate</w>": 6262, "pipe</w>": 6263, "magnet</w>": 6264, "fit.</w>": 6265, "ahead</w>": 6266, "nature</w>": 6267, "quit</w>": 6268, "thought.</w>": 6269, "point</w>": 6270, "rag</w>": 6271, "infan": 6272, "nuts</w>": 6273, "flea</w>": 6274, "es!</w>": 6275, "universit": 6276, "bus.</w>": 6277, "readin'</w>": 6278, "climbs</w>": 6279, "nicely</w>": 6280, "dressed</w>": 6281, "reading</w>": 6282, "hate</w>": 6283, "forever": 6284, "roof.</w>": 6285, "conta": 6286, "comet</w>": 6287, "bracele": 6288, "tasty.</w>": 6289, "can't.</w>": 6290, "burned</w>": 6291, "vaca": 6292, "cord</w>": 6293, "tear</w>": 6294, "screen</w>": 6295, "stronger.</w>": 6296, "\"wel": 6297, "lid</w>": 6298, "blinked</w>": 6299, "rod</w>": 6300, "cards</w>": 6301, "there.\"</w>": 6302, "ture.</w>": 6303, "rex.</w>": 6304, "block.</w>": 6305, "chocolate.</w>": 6306, "\"sam,</w>": 6307, "tty</w>": 6308, "posed</w>": 6309, "up!</w>": 6310, "rice</w>": 6311, "desk</w>": 6312, "there!</w>": 6313, "\"help,</w>": 6314, "cats</w>": 6315, "anymore.\"</w>": 6316, "dreaming</w>": 6317, "dreamin'</w>": 6318, "spinning</w>": 6319, "spinnin'</w>": 6320, "ambulance</w>": 6321, "hours,</w>": 6322, "blocks,</w>": 6323, "restore</w>": 6324, "tutor</w>": 6325, "piano</w>": 6326, "happened,</w>": 6327, "other": 6328, "vator</w>": 6329, "jump.</w>": 6330, "space": 6331, "elevator</w>": 6332, "eye.</w>": 6333, "theat": 6334, "god</w>": 6335, "osit": 6336, "scattered</w>": 6337, "stretch": 6338, "speak</w>": 6339, "castles</w>": 6340, "replace</w>": 6341, "drawing</w>": 6342, "drawin'</w>": 6343, "ped,</w>": 6344, "hook</w>": 6345, "towel.</w>": 6346, "uncomfortable.</w>": 6347, "na</w>": 6348, "desig": 6349, "squeeze</w>": 6350, "office.</w>": 6351, "excitedly.</w>": 6352, "pear": 6353, "pebble</w>": 6354, "safely.</w>": 6355, "boots</w>": 6356, "quie": 6357, "foot.</w>": 6358, "rock,</w>": 6359, "\"mm": 6360, "came,</w>": 6361, "family,</w>": 6362, "parade</w>": 6363, "ets</w>": 6364, "mommy?\"</w>": 6365, "shells.</w>": 6366, "lie.</w>": 6367, "ious.</w>": 6368, "an,</w>": 6369, "prepare</w>": 6370, "windows</w>": 6371, "look!\"</w>": 6372, "cuddled</w>": 6373, "believed</w>": 6374, "bl": 6375, "le,\"</w>": 6376, "have.</w>": 6377, "thermom": 6378, "restless</w>": 6379, "play.\"</w>": 6380, "received</w>": 6381, "advice.</w>": 6382, "leave,</w>": 6383, "offic": 6384, "ness</w>": 6385, "ss!</w>": 6386, "next,</w>": 6387, "beamed</w>": 6388, "lock.</w>": 6389, "fridge.</w>": 6390, "kind.\"</w>": 6391, "onion</w>": 6392, "smith</w>": 6393, "cactus</w>": 6394, "tug</w>": 6395, "van</w>": 6396, "ils</w>": 6397, "chain</w>": 6398, "bravely</w>": 6399, "bie</w>": 6400, "le?\"</w>": 6401, "popp": 6402, "kitt": 6403, "chall": 6404, "pour": 6405, "stage.</w>": 6406, "copp": 6407, "play!\"</w>": 6408, "milly</w>": 6409, "flower": 6410, "friend?\"</w>": 6411, "provide</w>": 6412, "turns.</w>": 6413, "coal</w>": 6414, "peta": 6415, "be,</w>": 6416, "scary,</w>": 6417, "stage</w>": 6418, "aeroplane</w>": 6419, "time!</w>": 6420, "pup</w>": 6421, "chasing</w>": 6422, "chasin'</w>": 6423, "lake,</w>": 6424, "cket,</w>": 6425, "acorn</w>": 6426, "fearful</w>": 6427, "rhyth": 6428, "simp": 6429, "examin": 6430, "sizes.</w>": 6431, "paw.</w>": 6432, "es!\"</w>": 6433, "behave</w>": 6434, "rot.</w>": 6435, "bird!\"</w>": 6436, "wife</w>": 6437, "giggle.</w>": 6438, "guitar.</w>": 6439, "sink.</w>": 6440, "side": 6441, "ch!</w>": 6442, "yelled,</w>": 6443, "sue,</w>": 6444, "y\".</w>": 6445, "mop</w>": 6446, "water": 6447, "garage</w>": 6448, "sticks.</w>": 6449, "trash</w>": 6450, "tore</w>": 6451, "mmer": 6452, "remind</w>": 6453, "display</w>": 6454, "stadi": 6455, "buzz</w>": 6456, "nothing.</w>": 6457, "tube</w>": 6458, "thinkin'</w>": 6459, "thinking</w>": 6460, "pretti": 6461, "shield</w>": 6462, "works</w>": 6463, "pizza.</w>": 6464, "bak": 6465, "scream</w>": 6466, "snapped</w>": 6467, "resu": 6468, "actu": 6469, "fasc": 6470, "main</w>": 6471, "rhinoceros</w>": 6472, "tough": 6473, "plant.</w>": 6474, "peach</w>": 6475, "flies.</w>": 6476, "to,</w>": 6477, "filthy</w>": 6478, "bikes</w>": 6479, "!\",</w>": 6480, "teaspo": 6481, "balloons.</w>": 6482, "like": 6483, "supposed</w>": 6484, "photo</w>": 6485, "surrounded</w>": 6486, "ckin'</w>": 6487, "card.</w>": 6488, "flame</w>": 6489, "ously</w>": 6490, "cking</w>": 6491, "badly.</w>": 6492, "examine</w>": 6493, "snugg": 6494, "today.\"</w>": 6495, "floated</w>": 6496, "hero.</w>": 6497, "spider.</w>": 6498, "knot</w>": 6499, "ball!\"</w>": 6500, "shade</w>": 6501, "tom!</w>": 6502, "john,</w>": 6503, "rocket.</w>": 6504, "-ra": 6505, "potato</w>": 6506, "coins.</w>": 6507, "harder.</w>": 6508, "kn": 6509, "oil</w>": 6510, "ce!\"</w>": 6511, "ement</w>": 6512, "on's</w>": 6513, "bicycle</w>": 6514, "carrot.</w>": 6515, "medicine.</w>": 6516, "ful!</w>": 6517, "lumb": 6518, "x-ra": 6519, "in!\"</w>": 6520, "self!</w>": 6521, "gasped.</w>": 6522, "chess</w>": 6523, "danger.</w>": 6524, "freddy</w>": 6525, "neighbor's</w>": 6526, "pole</w>": 6527, "jealous.</w>": 6528, "stamp</w>": 6529, "mus": 6530, "gas</w>": 6531, "draw.</w>": 6532, "broccoli</w>": 6533, "lila,</w>": 6534, "storm.</w>": 6535, "robot.</w>": 6536, "guilty.</w>": 6537, "carpet</w>": 6538, "leaving</w>": 6539, "leavin'</w>": 6540, "supply</w>": 6541, "easy.</w>": 6542, "yet.</w>": 6543, "lets</w>": 6544, "actually</w>": 6545, "fox": 6546, "trumpet</w>": 6547, "en!\"</w>": 6548, "pie.</w>": 6549, "farmer.</w>": 6550, "folded</w>": 6551, "deliver": 6552, "teddy.</w>": 6553, "ly!</w>": 6554, "ned,</w>": 6555, "collect": 6556, "mama,</w>": 6557, "remained</w>": 6558, "chri": 6559, "d:</w>": 6560, "molly.</w>": 6561, "dly.</w>": 6562, "tor.</w>": 6563, "\"help!</w>": 6564, "barrel</w>": 6565, "attic.</w>": 6566, "disappointed,</w>": 6567, "lollipop</w>": 6568, "\u00e2\u20ac\u0153that\u00e2\u20ac\u2122s</w>": 6569, "circles.</w>": 6570, "surprise!</w>": 6571, "thr": 6572, "drum.</w>": 6573, "nature.</w>": 6574, "\"there</w>": 6575, "market.</w>": 6576, "locked.</w>": 6577, "stoma": 6578, "yourself.</w>": 6579, "spoil</w>": 6580, "miserable.</w>": 6581, "gga": 6582, "coffee</w>": 6583, "\"these</w>": 6584, "trunk.</w>": 6585, "sock</w>": 6586, "castle,</w>": 6587, "wallet</w>": 6588, "purse</w>": 6589, "sight": 6590, "peace</w>": 6591, "ben!</w>": 6592, "wool</w>": 6593, "shrimp</w>": 6594, "honest.</w>": 6595, "available</w>": 6596, "magic.</w>": 6597, "cool!</w>": 6598, "hungry,</w>": 6599, "switch</w>": 6600, "staff</w>": 6601, "friends?\"</w>": 6602, "lugga": 6603, "anything": 6604, "breaks</w>": 6605, "remain</w>": 6606, "butterfly,</w>": 6607, "video</w>": 6608, "pants</w>": 6609, "approached</w>": 6610, "fixed.</w>": 6611, "part.</w>": 6612, "net": 6613, "gone!</w>": 6614, "crayon.</w>": 6615, "car!\"</w>": 6616, "driving</w>": 6617, "drivin'</w>": 6618, "fruits.</w>": 6619, "marb": 6620, "kind,</w>": 6621, "rocks,</w>": 6622, "boxes.</w>": 6623, "escape.</w>": 6624, "stuff</w>": 6625, "little.</w>": 6626, "gust</w>": 6627, "glow</w>": 6628, "paws</w>": 6629, "hungr": 6630, "groun": 6631, "saying</w>": 6632, "sayin'</w>": 6633, "y!\u00e2\u20ac</w>": 6634, "rosie</w>": 6635, "page</w>": 6636, "none</w>": 6637, "ties</w>": 6638, "first!\"</w>": 6639, "plu": 6640, "dreams.</w>": 6641, "cups</w>": 6642, "curled</w>": 6643, "battery</w>": 6644, "looked.</w>": 6645, "unhappy.</w>": 6646, "measured</w>": 6647, "flag.</w>": 6648, "ruby</w>": 6649, "sight</w>": 6650, "colours</w>": 6651, "perm": 6652, "skull</w>": 6653, "steak</w>": 6654, "wed.</w>": 6655, "es": 6656, "ture</w>": 6657, "giraffe</w>": 6658, "zebra": 6659, "pin</w>": 6660, "sorry.\"</w>": 6661, "tomorrow</w>": 6662, "butter</w>": 6663, "buttarr</w>": 6664, "stones.</w>": 6665, "improve</w>": 6666, "celery</w>": 6667, "restaurant</w>": 6668, "games,</w>": 6669, "kisses</w>": 6670, "k?\"</w>": 6671, "zipped</w>": 6672, "satis": 6673, "sal": 6674, "joke.</w>": 6675, "festiv": 6676, "flour</w>": 6677, "class.</w>": 6678, "zer": 6679, "hours.</w>": 6680, "bulb</w>": 6681, "relax": 6682, "hose.</w>": 6683, "owner,</w>": 6684, "loop</w>": 6685, "equi": 6686, "fountain.</w>": 6687, "mushroom</w>": 6688, "respectful</w>": 6689, "katie</w>": 6690, "crack": 6691, "solved</w>": 6692, "emer": 6693, "impatient</w>": 6694, "molly's</w>": 6695, "musician</w>": 6696, "pen.</w>": 6697, "twisted</w>": 6698, "organized.</w>": 6699, "ll.\"</w>": 6700, "equip": 6701, "pretending</w>": 6702, "pretendin'</w>": 6703, "else.\"</w>": 6704, "hive</w>": 6705, "dare</w>": 6706, "warmth</w>": 6707, "cloud.</w>": 6708, "ling,</w>": 6709, "knob</w>": 6710, "explained,</w>": 6711, "diary</w>": 6712, "brown.</w>": 6713, "clay.</w>": 6714, "\u00e2\u20ac\u0153thank</w>": 6715, "helpless</w>": 6716, "together": 6717, "tap</w>": 6718, "other.\"</w>": 6719, "plays</w>": 6720, "lawy": 6721, "squirrel": 6722, "forth.</w>": 6723, "ll!</w>": 6724, "sofa.</w>": 6725, "laid</w>": 6726, "warm,</w>": 6727, "ey.</w>": 6728, "screen.</w>": 6729, "do.\"</w>": 6730, "olive</w>": 6731, "sweet": 6732, "half.</w>": 6733, "play?\"</w>": 6734, "higher,</w>": 6735, "jane's</w>": 6736, "violin</w>": 6737, "lotion</w>": 6738, "spell</w>": 6739, "rachel</w>": 6740, "same.</w>": 6741, "urge</w>": 6742, "relax</w>": 6743, "life": 6744, "worry": 6745, "vid": 6746, "suff": 6747, "real.</w>": 6748, "coats</w>": 6749, "frowned.</w>": 6750, "wel</w>": 6751, "steve</w>": 6752, "about.</w>": 6753, "please.\"</w>": 6754, "everybody</w>": 6755, "jewel</w>": 6756, "searchin'</w>": 6757, "use.</w>": 6758, "searching</w>": 6759, "napkin</w>": 6760, "dress-": 6761, "generous.</w>": 6762, "trick</w>": 6763, "len": 6764, "chamb": 6765, "bear!</w>": 6766, "sheep.</w>": 6767, "thom": 6768, "skeleton</w>": 6769, "symbol</w>": 6770, "ce.\"</w>": 6771, "smaller</w>": 6772, "smallarr</w>": 6773, "cts</w>": 6774, "looking.</w>": 6775, "good.\"</w>": 6776, "here": 6777, "zig": 6778, "well,</w>": 6779, "cold,</w>": 6780, "lunch,</w>": 6781, "cable</w>": 6782, "tunnel</w>": 6783, "yogurt</w>": 6784, "microphone</w>": 6785, "club</w>": 6786, "basketball</w>": 6787, "suppli": 6788, "chalk</w>": 6789, "om,</w>": 6790, "cried,</w>": 6791, "grown</w>": 6792, "overjo": 6793, "\"hey</w>": 6794, "size</w>": 6795, "surrend": 6796, "backpa": 6797, "cushion</w>": 6798, "beside</w>": 6799, "ke!</w>": 6800, "chy</w>": 6801, "us,\"</w>": 6802, "sky!</w>": 6803, "sword.</w>": 6804, "stream.</w>": 6805, "moving.</w>": 6806, "destroy</w>": 6807, "clapped.</w>": 6808, "ure,</w>": 6809, "you\".</w>": 6810, "forge": 6811, "notebook</w>": 6812, "bean</w>": 6813, "back!</w>": 6814, "glove</w>": 6815, "shrin": 6816, "spark</w>": 6817, "sugar": 6818, "much.\"</w>": 6819, "add": 6820, "mint</w>": 6821, "dog!</w>": 6822, "bark</w>": 6823, "earthqua": 6824, "kin.</w>": 6825, "lucy,</w>": 6826, "tom!\"</w>": 6827, "frame</w>": 6828, "de,</w>": 6829, "ruined.</w>": 6830, "wait,</w>": 6831, "sister,</w>": 6832, "troubled</w>": 6833, "lime</w>": 6834, "tar": 6835, "class</w>": 6836, "trap</w>": 6837, "lamp.</w>": 6838, "shape.</w>": 6839, "friendship.</w>": 6840, "can,</w>": 6841, "the.</w>": 6842, "laundry</w>": 6843, "wigg": 6844, "memories</w>": 6845, "antly</w>": 6846, "fed</w>": 6847, "frightened.</w>": 6848, "answer</w>": 6849, "answarr</w>": 6850, "chlo": 6851, "want.\"</w>": 6852, "driver.</w>": 6853, "energy</w>": 6854, "prize.</w>": 6855, "new,</w>": 6856, "peered</w>": 6857, "model</w>": 6858, "meant.</w>": 6859, "counter.</w>": 6860, "iron</w>": 6861, "field,</w>": 6862, "ins,</w>": 6863, "feelings.</w>": 6864, "mill</w>": 6865, "working.</w>": 6866, "letter.</w>": 6867, "\"no!</w>": 6868, "pile.</w>": 6869, "soar": 6870, "bob's</w>": 6871, "\"ou": 6872, "ll!\"</w>": 6873, "sh!</w>": 6874, "glowed</w>": 6875, "breakfast</w>": 6876, "tag.</w>": 6877, "good!</w>": 6878, "doors.</w>": 6879, "zigza": 6880, "observe</w>": 6881, "petals</w>": 6882, "mper": 6883, "rake</w>": 6884, "pretty.\"</w>": 6885, "mail.</w>": 6886, "football</w>": 6887, "nail</w>": 6888, "frogs</w>": 6889, "'n</w>": 6890, "leaves,</w>": 6891, "liked.</w>": 6892, "sting</w>": 6893, "cap'n</w>": 6894, "bark.</w>": 6895, "this!\"</w>": 6896, "vin": 6897, "rooms</w>": 6898, "explained.</w>": 6899, "cleanin'</w>": 6900, "el,</w>": 6901, "cleaning</w>": 6902, "meal.</w>": 6903, "lled,</w>": 6904, "says:</w>": 6905, "watered</w>": 6906, "ased</w>": 6907, "\"mmm,</w>": 6908, "snowy</w>": 6909, "confid": 6910, "wheel.</w>": 6911, "sarah,</w>": 6912, "stop!\"</w>": 6913, "\"well</w>": 6914, "quietly</w>": 6915, "weap": 6916, "growled</w>": 6917, "trains</w>": 6918, "pretend.</w>": 6919, "wooden</w>": 6920, "radish</w>": 6921, "as.</w>": 6922, "\"ok,\"</w>": 6923, "-and-": 6924, "beautiful!</w>": 6925, "barber</w>": 6926, "barbarr</w>": 6927, "smoke.</w>": 6928, "ordered</w>": 6929, "bye</w>": 6930, "stamp": 6931, "tornado</w>": 6932, "flutt": 6933, "cart.</w>": 6934, "drawing.</w>": 6935, "journal</w>": 6936, "mosquito</w>": 6937, "eggs.</w>": 6938, "sometimes.</w>": 6939, "farmer": 6940, "journey,</w>": 6941, "fear.</w>": 6942, "heads.</w>": 6943, "motor</w>": 6944, "breeze</w>": 6945, "truck,</w>": 6946, "soil</w>": 6947, "victor": 6948, "tommy's</w>": 6949, "shake.</w>": 6950, "child.</w>": 6951, "!'</w>": 6952, "moves</w>": 6953, "fun,\"</w>": 6954, "raised</w>": 6955, "glue.</w>": 6956, "circle.</w>": 6957, "there!\"</w>": 6958, "nice!\"</w>": 6959, "ctly</w>": 6960, "nea": 6961, "high,</w>": 6962, "costume</w>": 6963, "finger</w>": 6964, "fingarr</w>": 6965, "pping.</w>": 6966, "start": 6967, "sleep,</w>": 6968, "station</w>": 6969, "space.</w>": 6970, "petted</w>": 6971, "attention</w>": 6972, "alarm</w>": 6973, "\"would</w>": 6974, "butterflies.</w>": 6975, "axe</w>": 6976, "knife.</w>": 6977, "begged</w>": 6978, "preci": 6979, "hood.</w>": 6980, "meat</w>": 6981, "view.</w>": 6982, "missing.</w>": 6983, "last,</w>": 6984, "window,</w>": 6985, "close,</w>": 6986, "finished.</w>": 6987, "piece.</w>": 6988, "hide-and-": 6989, "dom.</w>": 6990, "receive</w>": 6991, "whate": 6992, "day!\"</w>": 6993, "worm.</w>": 6994, "cles</w>": 6995, "abigail</w>": 6996, "dogg": 6997, "menu": 6998, "world,</w>": 6999, "famili": 7000, "watches</w>": 7001, "proper": 7002, "\"ok!\"</w>": 7003, "se's</w>": 7004, "backpack</w>": 7005, "honey,</w>": 7006, "week.</w>": 7007, "beak</w>": 7008, "you\u00e2\u20ac\u2122re</w>": 7009, "ckets.</w>": 7010, "hood</w>": 7011, "continue</w>": 7012, "bobo": 7013, "jami": 7014, "later.\"</w>": 7015, "lights.</w>": 7016, "comf": 7017, "pray</w>": 7018, "flying.</w>": 7019, "waste</w>": 7020, "vid</w>": 7021, "pop.</w>": 7022, "baseball</w>": 7023, "sugar.</w>": 7024, "xy": 7025, "starting</w>": 7026, "startin'</w>": 7027, "circu": 7028, "insisted</w>": 7029, "camera.</w>": 7030, "eled</w>": 7031, "\u00e2\u20ac\u0153that</w>": 7032, "together!</w>": 7033, "tape.</w>": 7034, "sad?\"</w>": 7035, "film</w>": 7036, "favorit": 7037, "trophy</w>": 7038, "tunnel.</w>": 7039, "ant,</w>": 7040, "slowly.</w>": 7041, "running,</w>": 7042, "stay.</w>": 7043, "lect": 7044, "happiest</w>": 7045, "measur": 7046, "asking.</w>": 7047, "ends</w>": 7048, "avocado</w>": 7049, "what\u00e2\u20ac\u2122s</w>": 7050, "dead.</w>": 7051, "mummy,</w>": 7052, "fashi": 7053, "accidents</w>": 7054, "\"sara,</w>": 7055, "out!</w>": 7056, "doll's</w>": 7057, "accompli": 7058, "feathers</w>": 7059, "featharrs</w>": 7060, "uncomfortable</w>": 7061, "sparkle</w>": 7062, "crept</w>": 7063, "landsca": 7064, "yacht</w>": 7065, "stadiu": 7066, "one,\"</w>": 7067, "shot</w>": 7068, "eat,</w>": 7069, "monkeys</w>": 7070, "ssie</w>": 7071, "power</w>": 7072, "powarr</w>": 7073, "\"rea": 7074, "miserable</w>": 7075, "itself</w>": 7076, "buttons.</w>": 7077, "repe": 7078, "stop,</w>": 7079, "sold</w>": 7080, "challen": 7081, "bites</w>": 7082, "bleed": 7083, "understand,</w>": 7084, "drum": 7085, "lady": 7086, "shocked.</w>": 7087, "carefully,</w>": 7088, "medal</w>": 7089, "ollie</w>": 7090, "growin'</w>": 7091, "growing</w>": 7092, "pear</w>": 7093, "ding.</w>": 7094, "ge!</w>": 7095, "charming</w>": 7096, "charmin'</w>": 7097, "missile</w>": 7098, "sure.</w>": 7099, "strength</w>": 7100, "see?\"</w>": 7101, "cows</w>": 7102, "bathtub.</w>": 7103, "bears</w>": 7104, "joe's</w>": 7105, "ima": 7106, "planes</w>": 7107, "river": 7108, "benny's</w>": 7109, "chocola": 7110, "tall.</w>": 7111, "cream,</w>": 7112, "white.</w>": 7113, "beep</w>": 7114, "hurt,</w>": 7115, "toys.\"</w>": 7116, "david</w>": 7117, "race,</w>": 7118, "betsy</w>": 7119, "als.</w>": 7120, "planted</w>": 7121, "three-year-old</w>": 7122, "repa": 7123, "curiosit": 7124, "hated</w>": 7125, "susi": 7126, "unite</w>": 7127, "ches,</w>": 7128, "pirates</w>": 7129, "bad,</w>": 7130, "veil</w>": 7131, "breath.</w>": 7132, "fields</w>": 7133, "scurvy</w>": 7134, "played.</w>": 7135, "repeat</w>": 7136, "\"a": 7137, "dishes</w>": 7138, "low,</w>": 7139, "bobb": 7140, "solu": 7141, "chewed</w>": 7142, "s.\u00e2\u20ac</w>": 7143, "painting</w>": 7144, "paintin'</w>": 7145, "buckle</w>": 7146, "attached</w>": 7147, "shrugged</w>": 7148, "him.\"</w>": 7149, "putting</w>": 7150, "puttin'</w>": 7151, "fear</w>": 7152, "thro": 7153, "gain</w>": 7154, "winn": 7155, "furniture</w>": 7156, "seas": 7157, "cow.</w>": 7158, "perched</w>": 7159, "stranger</w>": 7160, "ted!</w>": 7161, "them!</w>": 7162, "troubled.</w>": 7163, "bird!</w>": 7164, "lesson": 7165, "afraid": 7166, "trash.</w>": 7167, "reverse</w>": 7168, "manage</w>": 7169, "giggled.</w>": 7170, "trade</w>": 7171, "apples,</w>": 7172, "volcano</w>": 7173, "restin'</w>": 7174, "weren't</w>": 7175, "team.</w>": 7176, "\u00e2\u20ac\u0153can</w>": 7177, "mistake</w>": 7178, "afternoon</w>": 7179, "tom,\"</w>": 7180, "recognized</w>": 7181, "sammy.</w>": 7182, "tooth": 7183, "motorcycle</w>": 7184, "tray.</w>": 7185, "pushing</w>": 7186, "pushin'</w>": 7187, "yellow,</w>": 7188, "g.\"</w>": 7189, "post": 7190, "pasta": 7191, "\u00e2\u20ac\u0153i\u00e2\u20ac\u2122m</w>": 7192, "ck!</w>": 7193, "friends!</w>": 7194, "grumpy.</w>": 7195, "helpless.</w>": 7196, "sauce.</w>": 7197, "fascina": 7198, "road": 7199, "ater</w>": 7200, "another.</w>": 7201, "ves,</w>": 7202, "steam</w>": 7203, "fog</w>": 7204, "brand</w>": 7205, "sill": 7206, "aroun": 7207, "planet</w>": 7208, "him?\"</w>": 7209, "yelled.</w>": 7210, "lder": 7211, "muff": 7212, "land,</w>": 7213, "lands</w>": 7214, "go?\"</w>": 7215, "listening</w>": 7216, "listenin'</w>": 7217, "some?\"</w>": 7218, "is!\"</w>": 7219, "traffi": 7220, "prize</w>": 7221, "ie.</w>": 7222, "great,</w>": 7223, "explore,</w>": 7224, "rush</w>": 7225, "pretty!</w>": 7226, "marble</w>": 7227, "respectful.</w>": 7228, "sunglasses</w>": 7229, "oxy": 7230, "desk.</w>": 7231, "tim!</w>": 7232, "bring": 7233, "ha</w>": 7234, "soap.</w>": 7235, "p!\"</w>": 7236, "wand.</w>": 7237, "window": 7238, "splash.</w>": 7239, "was!</w>": 7240, "veterinarian</w>": 7241, "short</w>": 7242, "sparkly.</w>": 7243, "rollin'</w>": 7244, "rolling</w>": 7245, "appear": 7246, "birthday,</w>": 7247, "mark.</w>": 7248, "lollipop": 7249, "wrong?\"</w>": 7250, "loud,</w>": 7251, "yawned</w>": 7252, "hair,</w>": 7253, "beep": 7254, "ry!</w>": 7255, "dancing.</w>": 7256, "map.</w>": 7257, "curtain</w>": 7258, "crashed</w>": 7259, "person.</w>": 7260, "out!\"</w>": 7261, "chirped</w>": 7262, "stum": 7263, "paused</w>": 7264, "seein'</w>": 7265, "ada": 7266, "seeing</w>": 7267, "together?\"</w>": 7268, "da</w>": 7269, "mailbox.</w>": 7270, "e!\u00e2\u20ac</w>": 7271, "matches</w>": 7272, "bear's</w>": 7273, "s!\u00e2\u20ac</w>": 7274, "drawer.</w>": 7275, "tedd": 7276, "ticket</w>": 7277, "villag": 7278, "ha,</w>": 7279, "mother": 7280, "pattern</w>": 7281, "ffle": 7282, "armchair</w>": 7283, "stubborn.</w>": 7284, "itself.</w>": 7285, "bake.</w>": 7286, "navy</w>": 7287, "burn</w>": 7288, "skirt</w>": 7289, "\"not</w>": 7290, "cook.</w>": 7291, "emily.</w>": 7292, "hurried</w>": 7293, "forth</w>": 7294, "porch.</w>": 7295, "street,</w>": 7296, "infant</w>": 7297, "cherry</w>": 7298, "jokes</w>": 7299, "earth</w>": 7300, "sneak</w>": 7301, "nina</w>": 7302, "ator.</w>": 7303, "tub</w>": 7304, "amazing!\"</w>": 7305, "beef</w>": 7306, "river,</w>": 7307, "alone,</w>": 7308, "desp": 7309, "bs.</w>": 7310, "flour,</w>": 7311, "older</w>": 7312, "oldarr</w>": 7313, "hunter</w>": 7314, "huntarr</w>": 7315, "expected</w>": 7316, "ch.\"</w>": 7317, "green,</w>": 7318, "salad.</w>": 7319, "sadne": 7320, "liz</w>": 7321, "inside.\"</w>": 7322, "disturb</w>": 7323, "factory</w>": 7324, "ough,</w>": 7325, "onwards,</w>": 7326, "pray": 7327, "apron</w>": 7328, "pill</w>": 7329, "faucet</w>": 7330, "cone.</w>": 7331, "do?</w>": 7332, "ent!</w>": 7333, "foolish.</w>": 7334, "orange.</w>": 7335, "te!</w>": 7336, "amy's</w>": 7337, "hopin'</w>": 7338, "bin</w>": 7339, "hoping</w>": 7340, "gear</w>": 7341, "hut</w>": 7342, "y\u00e2\u20ac\u2122s</w>": 7343, "exactly</w>": 7344, "grocery</w>": 7345, "velvet</w>": 7346, "undernea": 7347, "lee.</w>": 7348, "cheek.</w>": 7349, "log.</w>": 7350, "question.</w>": 7351, "file</w>": 7352, "benea": 7353, "tely</w>": 7354, "robe.</w>": 7355, "sally's</w>": 7356, "why.</w>": 7357, "reque": 7358, "library.</w>": 7359, "yarn.</w>": 7360, "kayak</w>": 7361, "giggle</w>": 7362, "counting</w>": 7363, "countin'</w>": 7364, "station.</w>": 7365, "riding</w>": 7366, "ridin'</w>": 7367, "anxious.</w>": 7368, "ugly.</w>": 7369, "today?\"</w>": 7370, "reach.</w>": 7371, "knel": 7372, "whistled</w>": 7373, "slowly,</w>": 7374, "tricks</w>": 7375, "twirl</w>": 7376, "plann": 7377, "lls,</w>": 7378, "crow": 7379, "ving.</w>": 7380, "dies</w>": 7381, "boys.</w>": 7382, "inside!</w>": 7383, "mattress</w>": 7384, "knelt</w>": 7385, "tomorrow.\"</w>": 7386, "minute</w>": 7387, "magazine</w>": 7388, "arrived.</w>": 7389, "you.\u00e2\u20ac</w>": 7390, "destroyed</w>": 7391, "subway</w>": 7392, "stupid.</w>": 7393, "answered.</w>": 7394, "blood</w>": 7395, "out.\"</w>": 7396, "melted</w>": 7397, "insect</w>": 7398, "tea.</w>": 7399, "friend!\"</w>": 7400, "trail</w>": 7401, "brushed</w>": 7402, "soared</w>": 7403, "tools.</w>": 7404, "kitten.</w>": 7405, "track.</w>": 7406, "achie": 7407, "jam.</w>": 7408, "timmy!</w>": 7409, "grapes</w>": 7410, "wizard</w>": 7411, "poem</w>": 7412, "trap.</w>": 7413, "patiently</w>": 7414, "painting.</w>": 7415, "beneath</w>": 7416, "impatient.</w>": 7417, "kay": 7418, "shovel</w>": 7419, "cupboard.</w>": 7420, "palm</w>": 7421, "people,</w>": 7422, "itch.</w>": 7423, "grey</w>": 7424, "screw</w>": 7425, "one's</w>": 7426, "yester": 7427, "els.</w>": 7428, "lions,</w>": 7429, "punish</w>": 7430, "reward": 7431, "fort.</w>": 7432, "demand": 7433, "ct,</w>": 7434, "pistol</w>": 7435, "it!\u00e2\u20ac</w>": 7436, "walls.</w>": 7437, "stop!</w>": 7438, "m!</w>": 7439, "panda": 7440, "pan.</w>": 7441, "hello,</w>": 7442, "candles</w>": 7443, "bowed</w>": 7444, "silver</w>": 7445, "silvarr</w>": 7446, "you?</w>": 7447, "sail.</w>": 7448, "oxyg": 7449, "beth</w>": 7450, "great.</w>": 7451, "oran": 7452, "museum</w>": 7453, "ed.\"</w>": 7454, "faster,</w>": 7455, "church</w>": 7456, "wagon.</w>": 7457, "amazed!</w>": 7458, "bathtub</w>": 7459, "palace</w>": 7460, "hurt.\"</w>": 7461, "instru": 7462, "great!</w>": 7463, "banana.</w>": 7464, "ful.\"</w>": 7465, "blankets</w>": 7466, "meowed</w>": 7467, "delight</w>": 7468, "swo": 7469, "tree!</w>": 7470, "hay.</w>": 7471, "pink.</w>": 7472, "thirsty</w>": 7473, "te.\"</w>": 7474, "trave": 7475, "noisy.</w>": 7476, "order</w>": 7477, "ordarr</w>": 7478, "vit": 7479, "label</w>": 7480, "under.</w>": 7481, "sparkles</w>": 7482, "evening,</w>": 7483, "loaded</w>": 7484, "revealed</w>": 7485, "up!\"</w>": 7486, "mommy.\"</w>": 7487, "queen.</w>": 7488, "spear</w>": 7489, "computer.</w>": 7490, "sweetheart.</w>": 7491, "y.\u00e2\u20ac</w>": 7492, "ribbon</w>": 7493, "brush.</w>": 7494, "a's</w>": 7495, "\"yuck": 7496, "muffin</w>": 7497, "makeup</w>": 7498, "satisfi": 7499, "air,</w>": 7500, "comforted</w>": 7501, "hanna": 7502, "sick": 7503, "situ": 7504, "stars,</w>": 7505, "wander</w>": 7506, "wandarr</w>": 7507, "mystery</w>": 7508, "\"may": 7509, "root</w>": 7510, "hoop.</w>": 7511, "sted.</w>": 7512, "ard,</w>": 7513, "wheels.</w>": 7514, "ini": 7515, "impressed.</w>": 7516, "jumped,</w>": 7517, "haircut.</w>": 7518, "mama.</w>": 7519, "suit": 7520, "puddles</w>": 7521, "gatharr</w>": 7522, "examined</w>": 7523, "scratched</w>": 7524, "sailor": 7525, "bitter.</w>": 7526, "ed:</w>": 7527, "glass.</w>": 7528, "bunni": 7529, "provid": 7530, "smelly.</w>": 7531, "course!</w>": 7532, "pencil.</w>": 7533, "next.</w>": 7534, "kingdom</w>": 7535, "tide</w>": 7536, "times.</w>": 7537, "in.\"</w>": 7538, "bottom.</w>": 7539, "collar.</w>": 7540, "goal.</w>": 7541, "paws.</w>": 7542, "melt</w>": 7543, "successful.</w>": 7544, "firefight": 7545, "it?</w>": 7546, "settle</w>": 7547, "squirrels</w>": 7548, "zoe</w>": 7549, "bunny,</w>": 7550, "soon!\"</w>": 7551, "ining</w>": 7552, "inin'</w>": 7553, "bunn": 7554, "dessert.</w>": 7555, "shampoo</w>": 7556, "lulu": 7557, "piano.</w>": 7558, "berry.</w>": 7559, "gained</w>": 7560, "\"will</w>": 7561, "e\".</w>": 7562, "sticky</w>": 7563, "\"yay,</w>": 7564, "prepared</w>": 7565, "us,</w>": 7566, "on,\"</w>": 7567, "lizz": 7568, "ide.</w>": 7569, "candy,</w>": 7570, "careless.</w>": 7571, "razor</w>": 7572, "mine!</w>": 7573, "pit</w>": 7574, "mist</w>": 7575, "it.\u00e2\u20ac</w>": 7576, "rabbits</w>": 7577, "seagu": 7578, "toni": 7579, "parti": 7580, "lila's</w>": 7581, "calendar</w>": 7582, "shoulder.</w>": 7583, "week</w>": 7584, "sour.</w>": 7585, "clock.</w>": 7586, "bananas</w>": 7587, "saying,</w>": 7588, "butter.</w>": 7589, "sofa</w>": 7590, "closely</w>": 7591, "louder</w>": 7592, "loudarr</w>": 7593, "thomas</w>": 7594, "bus": 7595, "\"reall": 7596, "brothers</w>": 7597, "brotharrs</w>": 7598, "ones,</w>": 7599, "vroom</w>": 7600, "whip</w>": 7601, "blouse</w>": 7602, "ahead.</w>": 7603, "cent": 7604, "vroom,</w>": 7605, "opened.</w>": 7606, "ornament</w>": 7607, "lux": 7608, "independent.</w>": 7609, "reas": 7610, "en,\"</w>": 7611, "all,</w>": 7612, "rubber</w>": 7613, "rubbarr</w>": 7614, "waited,</w>": 7615, "art</w>": 7616, "houses.</w>": 7617, "wardrobe</w>": 7618, "flute.</w>": 7619, "jessi": 7620, "worried,</w>": 7621, "frowned</w>": 7622, "mouse,</w>": 7623, "task</w>": 7624, "jokes.</w>": 7625, "mun": 7626, "numbers.</w>": 7627, "hedge</w>": 7628, "board": 7629, "grinned</w>": 7630, "reward</w>": 7631, "anne</w>": 7632, "tang": 7633, "porch</w>": 7634, "fuel</w>": 7635, "ster.</w>": 7636, "creature.</w>": 7637, "i've</w>": 7638, "experience</w>": 7639, "future.</w>": 7640, "ts!</w>": 7641, "popcorn.</w>": 7642, "jenny.</w>": 7643, "\u00e2\u20ac\u0153no,</w>": 7644, "umbrella.</w>": 7645, "telephone</w>": 7646, "wolf.</w>": 7647, "quarrel</w>": 7648, "opera</w>": 7649, "noise,</w>": 7650, "adventurous.</w>": 7651, "sally,</w>": 7652, "\u00e2\u20ac\u0153we</w>": 7653, "waits</w>": 7654, "daisy's</w>": 7655, "\"now,</w>": 7656, "recognize</w>": 7657, "cabinet</w>": 7658, "dough.</w>": 7659, "josh</w>": 7660, "girls</w>": 7661, "cin": 7662, "che</w>": 7663, "explore": 7664, "slapped</w>": 7665, "owned</w>": 7666, "softly.</w>": 7667, "scratch</w>": 7668, "his.</w>": 7669, "retur": 7670, "tank.</w>": 7671, "chair,</w>": 7672, "tastes</w>": 7673, "hammer</w>": 7674, "hammarr</w>": 7675, "harder</w>": 7676, "hardarr</w>": 7677, "\"yum": 7678, "hurricane</w>": 7679, "ces,</w>": 7680, "yield</w>": 7681, "remy</w>": 7682, "cookies,</w>": 7683, "sneaked</w>": 7684, "they're</w>": 7685, "bob,</w>": 7686, "longer.</w>": 7687, "jake.</w>": 7688, "car.\"</w>": 7689, "'s.</w>": 7690, "badly</w>": 7691, "birdi": 7692, "ben?\"</w>": 7693, "movie.</w>": 7694, "hotel</w>": 7695, "menti": 7696, "trying.</w>": 7697, "wide.</w>": 7698, "rooms.</w>": 7699, "talking.</w>": 7700, "bathroom</w>": 7701, "slice</w>": 7702, "squirrel,</w>": 7703, "res.</w>": 7704, "paints</w>": 7705, "shopkeeper</w>": 7706, "shopkeeparr</w>": 7707, "woman.</w>": 7708, "waffle": 7709, "wonderful.</w>": 7710, "eats</w>": 7711, "try?\"</w>": 7712, "knight": 7713, "friend!</w>": 7714, "cauti": 7715, "introduce</w>": 7716, "investigate.</w>": 7717, "realize</w>": 7718, "rul": 7719, "softly</w>": 7720, "ven,</w>": 7721, "bookcase</w>": 7722, "cheese,</w>": 7723, "emergen": 7724, "hangin'</w>": 7725, "towers</w>": 7726, "towarrs</w>": 7727, "l!</w>": 7728, "clean,</w>": 7729, "thrilled</w>": 7730, "contro": 7731, "lid.</w>": 7732, "hanging</w>": 7733, "listened.</w>": 7734, "horses</w>": 7735, "dinosaur.</w>": 7736, "pastry</w>": 7737, "es?\"</w>": 7738, "ta</w>": 7739, "oke": 7740, "along,</w>": 7741, "sugar,</w>": 7742, "prayed</w>": 7743, "float</w>": 7744, "temple</w>": 7745, "pit.</w>": 7746, "opini": 7747, "argue</w>": 7748, "lisa.</w>": 7749, "what.</w>": 7750, "number.</w>": 7751, "perfume</w>": 7752, "restless.</w>": 7753, "that.\"</w>": 7754, "alive.</w>": 7755, "waffle</w>": 7756, "here?</w>": 7757, "both.</w>": 7758, "squeez": 7759, "memory</w>": 7760, "contain</w>": 7761, "cherries</w>": 7762, "\u00e2\u20ac\u0153it</w>": 7763, "below.</w>": 7764, "wre": 7765, "jewelry</w>": 7766, "apart.</w>": 7767, "worke": 7768, "during</w>": 7769, "durin'</w>": 7770, "do!\"</w>": 7771, "igloo</w>": 7772, "ths</w>": 7773, "bbled</w>": 7774, "froz": 7775, "mommy,\"</w>": 7776, "sunflower</w>": 7777, "sunflowarr</w>": 7778, "cave,</w>": 7779, "decides</w>": 7780, "shakin'</w>": 7781, "soldier</w>": 7782, "soldiarr</w>": 7783, "shaking</w>": 7784, "good!\"</w>": 7785, "cows,</w>": 7786, "otter</w>": 7787, "ottarr</w>": 7788, "useful.</w>": 7789, "col": 7790, "oursel": 7791, "carpet.</w>": 7792, "cube": 7793, "umb</w>": 7794, "cell</w>": 7795, "spring</w>": 7796, "sprin'</w>": 7797, "tricks.</w>": 7798, "doggy</w>": 7799, "palace.</w>": 7800, "instructi": 7801, "anymore,</w>": 7802, "bon": 7803, "\u00e2\u20ac\u0153this</w>": 7804, "julie</w>": 7805, "p.\"</w>": 7806, "smell.</w>": 7807, "are,</w>": 7808, "sir.</w>": 7809, "afterwards,</w>": 7810, "ceiling.</w>": 7811, "greedy</w>": 7812, "perfectly.</w>": 7813, "fast!\"</w>": 7814, "release</w>": 7815, "jamie</w>": 7816, "children,</w>": 7817, "change.</w>": 7818, "clown": 7819, "tall,</w>": 7820, "boats.</w>": 7821, "eagle</w>": 7822, "speed": 7823, "deliver</w>": 7824, "delivarr</w>": 7825, "plates</w>": 7826, "glitt": 7827, "claws.</w>": 7828, "suzy</w>": 7829, "draws</w>": 7830, "decorated</w>": 7831, "careful,\"</w>": 7832, "relu": 7833, "reluct": 7834, "simple</w>": 7835, "lesson:</w>": 7836, "mailman</w>": 7837, "boring</w>": 7838, "borin'</w>": 7839, "\u00e2\u20ac\u201d": 7840, "zooke": 7841, "vent": 7842, "studied</w>": 7843, "meet": 7844, "discuss</w>": 7845, "scurried</w>": 7846, "deer.</w>": 7847, "win'</w>": 7848, "kitty.</w>": 7849, "brain</w>": 7850, "handle.</w>": 7851, "toile": 7852, "wing</w>": 7853, "did!</w>": 7854, "lollipop.</w>": 7855, "hug,</w>": 7856, "bookshelf</w>": 7857, "lions</w>": 7858, "disturbed</w>": 7859, "attic</w>": 7860, "purple.</w>": 7861, "h-": 7862, "te!\"</w>": 7863, "go,\"</w>": 7864, "sniff": 7865, "persistent.</w>": 7866, "pinched</w>": 7867, "do!</w>": 7868, "barking</w>": 7869, "barkin'</w>": 7870, "stickers.</w>": 7871, "seeds.</w>": 7872, "dnes": 7873, "frank</w>": 7874, "serious.</w>": 7875, "scream": 7876, "doctors</w>": 7877, "cartoon</w>": 7878, "chloe</w>": 7879, "jacket.</w>": 7880, "\"or</w>": 7881, "wednes": 7882, "sts.</w>": 7883, "che.</w>": 7884, "mistakes.</w>": 7885, "lola": 7886, "ashtray</w>": 7887, "radio.</w>": 7888, "billy,</w>": 7889, "argue.</w>": 7890, "police": 7891, "egg.</w>": 7892, "sorry,\"</w>": 7893, "bossy.</w>": 7894, "best,</w>": 7895, "permit</w>": 7896, "throwing</w>": 7897, "throwin'</w>": 7898, "delay</w>": 7899, "l.\"</w>": 7900, "parrs</w>": 7901, "\"yay!</w>": 7902, "heat</w>": 7903, "surf": 7904, "hive.</w>": 7905, "chairs</w>": 7906, "sunset.</w>": 7907, "things!</w>": 7908, "toy.\"</w>": 7909, "snap</w>": 7910, "swim": 7911, "difficult.</w>": 7912, "soak</w>": 7913, "dessert</w>": 7914, "birdcage</w>": 7915, "slow,</w>": 7916, "will.</w>": 7917, "t?</w>": 7918, "cookin'</w>": 7919, "cooking</w>": 7920, "lle</w>": 7921, "dai": 7922, "sus": 7923, "brightly.</w>": 7924, "pages</w>": 7925, "story:</w>": 7926, "bunch</w>": 7927, "sharp.</w>": 7928, "bitter</w>": 7929, "bittarr</w>": 7930, "yiel": 7931, "ate,</w>": 7932, "ruin</w>": 7933, "keeps</w>": 7934, "shoes,</w>": 7935, "rug.</w>": 7936, "rules</w>": 7937, "bags.</w>": 7938, "shiel": 7939, "adu": 7940, "ash</w>": 7941, "junk</w>": 7942, "asleep,</w>": 7943, "proudly.</w>": 7944, "sleeping</w>": 7945, "tumm": 7946, "spade</w>": 7947, "tex": 7948, "dress-up</w>": 7949, "was": 7950, "closely.</w>": 7951, "car!</w>": 7952, "happier.</w>": 7953, "bloom</w>": 7954, "waving</w>": 7955, "wavin'</w>": 7956, "cards.</w>": 7957, "unlocked</w>": 7958, "words,</w>": 7959, "clap.</w>": 7960, "restaurant.</w>": 7961, "co</w>": 7962, "floppy</w>": 7963, "ve,\"</w>": 7964, "pies</w>": 7965, "tues": 7966, "thunder.</w>": 7967, "fluffy,</w>": 7968, "deser": 7969, "our.</w>": 7970, "precious</w>": 7971, "score</w>": 7972, "nemo": 7973, "cted.</w>": 7974, "underneath</w>": 7975, "penny.</w>": 7976, "fish!</w>": 7977, "tree": 7978, "mustache</w>": 7979, "boot</w>": 7980, "sen": 7981, "fragile.</w>": 7982, "dangerous.\"</w>": 7983, "start.</w>": 7984, "cuddle</w>": 7985, "proje": 7986, "novel</w>": 7987, "uniform</w>": 7988, "upset,</w>": 7989, "max!</w>": 7990, "trick": 7991, "barely</w>": 7992, "choice.</w>": 7993, "i\u00e2\u20ac\u2122ll</w>": 7994, "quickly,</w>": 7995, "\u00e2\u20ac\u0153don\u00e2\u20ac\u2122t</w>": 7996, "further</w>": 7997, "furtharr</w>": 7998, "bears.</w>": 7999, "ils.</w>": 8000, "found!\"</w>": 8001, "microscope</w>": 8002, "hammer.</w>": 8003, "g?\"</w>": 8004, "letting</w>": 8005, "lettin'</w>": 8006, "obedient.</w>": 8007, "dear.</w>": 8008, "luxur": 8009, "nation</w>": 8010, "juicy.</w>": 8011, "shape": 8012, "colors,</w>": 8013, "climbin'</w>": 8014, "parts</w>": 8015, "climbing</w>": 8016, "moments</w>": 8017, "crumb": 8018, "windows.</w>": 8019, "struggled</w>": 8020, "chickens</w>": 8021, "signs</w>": 8022, "babi": 8023, "airport</w>": 8024, "deep.</w>": 8025, "summer</w>": 8026, "summarr</w>": 8027, "accident.</w>": 8028, "pepper</w>": 8029, "pepparr</w>": 8030, "possible.</w>": 8031, "crib</w>": 8032, "released</w>": 8033, "happened?\"</w>": 8034, "easily.</w>": 8035, "budge.</w>": 8036, "jogged</w>": 8037, "mask": 8038, "cool,</w>": 8039, "bathrobe</w>": 8040, "parents,</w>": 8041, "closed.</w>": 8042, "still,</w>": 8043, "scale.</w>": 8044, "rain,</w>": 8045, "bushes</w>": 8046, "slippery.</w>": 8047, "kangaroo": 8048, "see!\"</w>": 8049, "more.\"</w>": 8050, "brighter.</w>": 8051, "sadly.</w>": 8052, "village,</w>": 8053, "\"she</w>": 8054, "arrow": 8055, "mean?\"</w>": 8056, "fearful.</w>": 8057, "club.</w>": 8058, "worms</w>": 8059, "\"there,</w>": 8060, "leo.</w>": 8061, "fireplace</w>": 8062, "pants.</w>": 8063, "vowed</w>": 8064, "relax.</w>": 8065, "stron": 8066, "threa": 8067, "spit</w>": 8068, "dge": 8069, "oh</w>": 8070, "tid": 8071, "how": 8072, "hurts!\"</w>": 8073, "kar": 8074, "sausage</w>": 8075, "taste.</w>": 8076, "stable</w>": 8077, "names.</w>": 8078, "enty</w>": 8079, "priz": 8080, "museum.</w>": 8081, "question</w>": 8082, "mother,</w>": 8083, "calm": 8084, "hers.</w>": 8085, "violin.</w>": 8086, "nice,\"</w>": 8087, "prince.</w>": 8088, "\"u": 8089, "mes": 8090, "stole</w>": 8091, "chicken.</w>": 8092, "write.</w>": 8093, "angr": 8094, "prune</w>": 8095, "gazed</w>": 8096, "presents</w>": 8097, "someone.</w>": 8098, "whiskers</w>": 8099, "whiskarrs</w>": 8100, "wonder.</w>": 8101, "course.</w>": 8102, "\"dad,</w>": 8103, "thermomet": 8104, "feather</w>": 8105, "featharr</w>": 8106, "rang": 8107, "tha</w>": 8108, "hospital,</w>": 8109, "costum": 8110, "normal.</w>": 8111, "mitten</w>": 8112, "\"happy</w>": 8113, "engine.</w>": 8114, "parked</w>": 8115, "cheer</w>": 8116, "chearr</w>": 8117, "love,</w>": 8118, "going?\"</w>": 8119, "size.</w>": 8120, "mitten": 8121, "forth,</w>": 8122, "printed</w>": 8123, "struck</w>": 8124, "ed!\"</w>": 8125, "best.\"</w>": 8126, "clown.</w>": 8127, "help?\"</w>": 8128, "teri": 8129, "falling</w>": 8130, "fallin'</w>": 8131, "tire": 8132, "bracelet.</w>": 8133, "here,\"</w>": 8134, "surprised!</w>": 8135, "clapping</w>": 8136, "clappin'</w>": 8137, "now,\"</w>": 8138, "parade.</w>": 8139, "exclaimed</w>": 8140, "swingin'</w>": 8141, "spiri": 8142, "drive.</w>": 8143, "dragged</w>": 8144, "television</w>": 8145, "swinging</w>": 8146, "prettiest</w>": 8147, "luna</w>": 8148, "bananas.</w>": 8149, "awe": 8150, "princess": 8151, "friend,\"</w>": 8152, "them!\"</w>": 8153, "catch.</w>": 8154, "lab</w>": 8155, "dark": 8156, "rise.</w>": 8157, "greedy.</w>": 8158, "fabri": 8159, "\"": 8160}, "tokens_to_string": {"0": "<padding>", "1": "<begin_of_sentence>", "2": "<end_of_sentence>", "3": "<unknown>", "4": "</w>", "5": "a", "6": "b", "7": "c", "8": "d", "9": "e", "10": "f", "11": "g", "12": "h", "13": "i", "14": "j", "15": "k", "16": "l", "17": "m", "18": "n", "19": "o", "20": "p", "21": "q", "22": "r", "23": "s", "24": "t", "25": "u", "26": "v", "27": "w", "28": "x", "29": "y", "30": "z", "31": "0", "32": "1", "33": "2", "34": "3", "35": "4", "36": "5", "37": "6", "38": "7", "39": "8", "40": "9", "41": "!", "42": "@", "43": "#", "44": "$", "45": "%", "46": "^", "47": "&", "48": "*", "49": "(", "50": ")", "51": "_", "52": "+", "53": "-", "54": "=", "55": "[", "56": "]", "57": "{", "58": "}", "59": "|", "60": ";", "61": ":", "62": ",", "63": ".", "64": "<", "65": ">", "66": "?", "67": "/", "68": "</", "69": "w>", "70": "</w>", "71": "e</w>", "72": "d</w>", "73": "th", "74": ".</w>", "75": "an", "76": "t</w>", "77": "y</w>", "78": "er", "79": "s</w>", "80": "o</w>", "81": "in", "82": "ar", "83": "and</w>", "84": "ed</w>", "85": ",</w>", "86": "he</w>", "87": "a</w>", "88": "'</w>", "89": "to</w>", "90": "on", "91": "ou", "92": "en", "93": "the</w>", "94": "th'</w>", "95": "the", "96": "r</w>", "97": "li", "98": "om", "99": "wa", "100": "sa", "101": "she</w>", "102": "ll", "103": "re", "104": "ha", "105": "ere</w>", "106": "er</w>", "107": "hi", "108": "!</w>", "109": "they</w>", "110": "were</w>", "111": "lo", "112": "st", "113": "it</w>", "114": "g</w>", "115": "ti", "116": "id", "117": "le", "118": "w</w>", "119": "ma", "120": "\"</w>", "121": "la", "122": "was</w>", "123": "at</w>", "124": "s.</w>", "125": "en</w>", "126": "ck", "127": "wi", "128": "or", "129": "y.</w>", "130": "arr</w>", "131": "on</w>", "132": "in</w>", "133": "d.</w>", "134": "m</w>", "135": "e.</w>", "136": "no", "137": "f</w>", "138": "ch", "139": "ri", "140": "to", "141": "bu", "142": "da", "143": "ll</w>", "144": "gh", "145": "th</w>", "146": "el", "147": "sh", "148": "it", "149": "ver", "150": "tim", "151": "ly</w>", "152": "ing</w>", "153": "y,</w>", "154": "an</w>", "155": "in'</w>", "156": "be", "157": "mi", "158": "ok", "159": "de", "160": "his</w>", "161": "ar</w>", "162": "with</w>", "163": "un", "164": "do", "165": "of</w>", "166": "om</w>", "167": "be</w>", "168": "ld</w>", "169": "'s</w>", "170": "ve</w>", "171": "fo", "172": "so</w>", "173": "as", "174": "up", "175": "ce</w>", "176": "ke</w>", "177": "that</w>", "178": "l</w>", "179": "ro", "180": "se", "181": "you", "182": "but</w>", "183": "one</w>", "184": "pp", "185": "ra", "186": "le</w>", "187": "ca", "188": "said", "189": "tt", "190": "had</w>", "191": "ba", "192": "very</w>", "193": "oun", "194": "her</w>", "195": "harr</w>", "196": "me</w>", "197": "wh", "198": "ne", "199": "lily</w>", "200": "bo", "201": "ho", "202": "ir", "203": "sp", "204": "e,</w>", "205": "for</w>", "206": "na", "207": "ing", "208": "ur", "209": "pla", "210": "me", "211": "we", "212": "ked</w>", "213": "my</w>", "214": "i</w>", "215": "mo", "216": "ck</w>", "217": "said,</w>", "218": "wn", "219": "es</w>", "220": "er.</w>", "221": "ould</w>", "222": "som", "223": "not</w>", "224": "day,</w>", "225": "ted</w>", "226": "ry</w>", "227": ".\"</w>", "228": "saw</w>", "229": "t.</w>", "230": "s!</w>", "231": "st</w>", "232": "go", "233": "ye</w>", "234": "car", "235": "ge", "236": "rea", "237": "ir</w>", "238": "happ", "239": "ta", "240": "k</w>", "241": "'t</w>", "242": "!\"</w>", "243": "ch</w>", "244": "ea", "245": "di", "246": "once</w>", "247": "ther</w>", "248": "jo", "249": "s,</w>", "250": "mom", "251": "fu", "252": "co", "253": "look", "254": "ved</w>", "255": "you</w>", "256": "d,</w>", "257": "ound</w>", "258": "ent</w>", "259": "lly</w>", "260": "make</w>", "261": "ke", "262": "fri", "263": "dd", "264": "te", "265": "down", "266": "is</w>", "267": "ci", "268": "bi", "269": "frien", "270": "se</w>", "271": "upon</w>", "272": "pi", "273": "their</w>", "274": "si", "275": "p</w>", "276": "dec", "277": "ght", "278": "ga", "279": "smi", "280": "out</w>", "281": "ver</w>", "282": "fin", "283": "have</w>", "284": "al", "285": "wan", "286": "fr", "287": "can</w>", "288": "par", "289": "fe", "290": "as</w>", "291": "thar</w>", "292": "fa", "293": "time,</w>", "294": "pu", "295": "him</w>", "296": "wha", "297": "went</w>", "298": "com", "299": "med</w>", "300": "op", "301": "m.</w>", "302": "ye", "303": "all</w>", "304": "?\"</w>", "305": "fan", "306": "when</w>", "307": "we</w>", "308": "lil", "309": "sid", "310": "go</w>", "311": "tre", "312": "ttle</w>", "313": "fun", "314": "ex", "315": "n't</w>", "316": "up</w>", "317": "su", "318": "ed.</w>", "319": "friend", "320": "from</w>", "321": "mother</w>", "322": "gr", "323": "and", "324": "what</w>", "325": "mer", "326": "some", "327": "little</w>", "328": "wee</w>", "329": "tom</w>", "330": "it.</w>", "331": "led</w>", "332": "dear</w>", "333": "arr", "334": "wor", "335": "um", "336": "hel", "337": "named</w>", "338": "merry</w>", "339": "ben</w>", "340": "are</w>", "341": "mom</w>", "342": "ght</w>", "343": "star", "344": "there</w>", "345": "fi", "346": "loved</w>", "347": "de</w>", "348": "blo", "349": "fel", "350": "shi", "351": "day</w>", "352": "po", "353": "like</w>", "354": "felt</w>", "355": "ts</w>", "356": "them</w>", "357": "ys</w>", "358": "looked</w>", "359": "der", "360": "mu", "361": "could</w>", "362": "ghty</w>", "363": "he", "364": "pa", "365": "ard", "366": "so", "367": "cle", "368": "ing.</w>", "369": "\u00e2\u20ac", "370": "mighty</w>", "371": "lu", "372": "would</w>", "373": "big</w>", "374": "down</w>", "375": "x</w>", "376": "play", "377": "t's</w>", "378": "sai", "379": "some</w>", "380": "ce", "381": "gir", "382": ",\"</w>", "383": "awa", "384": "ore</w>", "385": "toge", "386": "or</w>", "387": "ge</w>", "388": "back</w>", "389": "ared</w>", "390": "new</w>", "391": "see</w>", "392": "?</w>", "393": "wat", "394": "started</w>", "395": "ld", "396": "did</w>", "397": "gg", "398": "ran</w>", "399": "someth", "400": "y!</w>", "401": "ru", "402": "sh</w>", "403": "made</w>", "404": "decl", "405": "around</w>", "406": "smiled</w>", "407": "came</w>", "408": "ful</w>", "409": "then</w>", "410": "ab", "411": "pr", "412": "bli", "413": "hu", "414": "las", "415": "said.</w>", "416": "play</w>", "417": "gh</w>", "418": "ber", "419": "fanci", "420": "ni", "421": "wanted</w>", "422": "fancied</w>", "423": "do</w>", "424": "time</w>", "425": "timmy</w>", "426": "pe", "427": "ard</w>", "428": "aga", "429": "got</w>", "430": "av", "431": "ow", "432": "than", "433": "k.</w>", "434": "asked</w>", "435": "say", "436": "sie</w>", "437": "who</w>", "438": "ok</w>", "439": "put</w>", "440": "bir", "441": "is", "442": "jolly</w>", "443": "declared</w>", "444": "said</w>", "445": "cy</w>", "446": "found</w>", "447": "happy</w>", "448": "in.</w>", "449": "side</w>", "450": "girl</w>", "451": "lassie</w>", "452": "ure</w>", "453": "togeth", "454": "by</w>", "455": "en.</w>", "456": "decid", "457": "ever", "458": "wal", "459": "ddy</w>", "460": "pped</w>", "461": "gi", "462": "out", "463": "te</w>", "464": "liked</w>", "465": "ann", "466": "oth", "467": "qu", "468": "y?</w>", "469": "bar", "470": "ent", "471": "cou", "472": "decided</w>", "473": "re.</w>", "474": "le.</w>", "475": "sav", "476": "bra", "477": "did", "478": "mommy</w>", "479": "spe", "480": "l.</w>", "481": "scar", "482": "al</w>", "483": "ast</w>", "484": "get</w>", "485": "kno", "486": "hom", "487": "ju", "488": "che", "489": "vy?</w>", "490": "savvy?</w>", "491": "oud</w>", "492": "ja", "493": "happy.</w>", "494": "help", "495": "arr!</w>", "496": "clo", "497": "tri", "498": "sar", "499": "every", "500": "sti", "501": "feel", "502": "lled</w>", "503": "g.</w>", "504": "don", "505": "goo", "506": "varr</w>", "507": "will</w>", "508": "exc", "509": "y's</w>", "510": "man</w>", "511": "ways</w>", "512": "af", "513": "on,</w>", "514": "man", "515": "tim</w>", "516": "sed</w>", "517": "sor", "518": "pre", "519": "too</w>", "520": "use</w>", "521": "ind</w>", "522": "lily.</w>", "523": "ce.</w>", "524": "yer</w>", "525": "flo", "526": "i'", "527": "always</w>", "528": "took</w>", "529": "this</w>", "530": "bb", "531": "n</w>", "532": "find</w>", "533": "too", "534": "excit", "535": "about</w>", "536": "didn't</w>", "537": "mak", "538": "hand</w>", "539": "end</w>", "540": "gre", "541": "\"i</w>", "542": "spo", "543": "no</w>", "544": "speci", "545": "en,</w>", "546": "br", "547": "blow</w>", "548": "tom", "549": "sta", "550": "whi", "551": "ed,</w>", "552": "lau", "553": "it's</w>", "554": "ck.</w>", "555": "down!</w>", "556": "shiver</w>", "557": "mey!</w>", "558": "blimey!</w>", "559": "b</w>", "560": "ned</w>", "561": "how</w>", "562": "bers!</w>", "563": "ched</w>", "564": "timbers!</w>", "565": "over</w>", "566": "ll.</w>", "567": "cu", "568": "bri", "569": "sudd", "570": "ave</w>", "571": "friends.</w>", "572": "beard", "573": "thing", "574": "for", "575": "lan", "576": "old</w>", "577": "knew</w>", "578": "fun</w>", "579": "every</w>", "580": "ly,</w>", "581": "tell</w>", "582": "let's</w>", "583": "barna", "584": "sudden", "585": "just</w>", "586": "lor", "587": "ny</w>", "588": "tha", "589": "ev", "590": "aft", "591": "don't</w>", "592": "care", "593": "lear", "594": "llo", "595": "fre", "596": "ldn't</w>", "597": "if</w>", "598": "sto", "599": "sk", "600": "hand", "601": "sho", "602": "ump", "603": "mar", "604": "ani", "605": "each</w>", "606": "anna</w>", "607": "iny</w>", "608": "of", "609": "treas", "610": "sam</w>", "611": "sun", "612": "ink</w>", "613": "gged</w>", "614": "cre", "615": "laugh", "616": "se.</w>", "617": "more</w>", "618": "fl", "619": "on.</w>", "620": "ss</w>", "621": "again.</w>", "622": "hea", "623": "lon", "624": "er,</w>", "625": "him.</w>", "626": "es.</w>", "627": "into</w>", "628": "under", "629": "zz", "630": "ed", "631": "cked</w>", "632": "ad", "633": "come</w>", "634": "told</w>", "635": "tru", "636": "max</w>", "637": "hou", "638": "them.</w>", "639": "ad</w>", "640": "heard</w>", "641": "fancy</w>", "642": "ho</w>", "643": "tried</w>", "644": "gra", "645": "ure", "646": "ep</w>", "647": "says.</w>", "648": "les.</w>", "649": "boy</w>", "650": "cause</w>", "651": "her.</w>", "652": "t,</w>", "653": "str", "654": "sel", "655": "laddy</w>", "656": "because</w>", "657": "special</w>", "658": "crea", "659": "ct", "660": "ought</w>", "661": "couldn't</w>", "662": "want</w>", "663": "por", "664": "suddenly,</w>", "665": "i'm</w>", "666": "hugged</w>", "667": "played</w>", "668": "dog</w>", "669": "st.</w>", "670": "many</w>", "671": "any", "672": "tw", "673": "men</w>", "674": "flow", "675": "et</w>", "676": "dead</w>", "677": "exp", "678": "sea</w>", "679": "im", "680": "ous</w>", "681": "ened</w>", "682": "somethin'</w>", "683": "something</w>", "684": "tten</w>", "685": "mom.</w>", "686": "aske", "687": "w.</w>", "688": "ound.</w>", "689": "know</w>", "690": "park.</w>", "691": "anima", "692": "away.</w>", "693": "makin'</w>", "694": "yo</w>", "695": "ing,</w>", "696": "unti", "697": "shed</w>", "698": "fresh</w>", "699": "proud</w>", "700": "jack</w>", "701": "bea", "702": "red</w>", "703": "ster", "704": "until</w>", "705": "smile", "706": "our</w>", "707": "thank</w>", "708": "bett", "709": "ds</w>", "710": "gro", "711": "day.</w>", "712": "dy</w>", "713": "ls</w>", "714": "outside</w>", "715": "learned</w>", "716": "ant</w>", "717": "even</w>", "718": "fun.</w>", "719": "timm", "720": "owed</w>", "721": "yes,</w>", "722": "ang", "723": "together.</w>", "724": "run", "725": "much</w>", "726": "t!</w>", "727": "side.</w>", "728": "tur", "729": "bla", "730": "stor", "731": "lend</w>", "732": "then,</w>", "733": "can", "734": "urp", "735": "hur", "736": "ced</w>", "737": "away</w>", "738": "ry", "739": "ther", "740": "lla", "741": "its</w>", "742": "\u00e2\u20ac\u0153", "743": "ch.</w>", "744": "help</w>", "745": "op.</w>", "746": "ry.</w>", "747": "ling</w>", "748": "sara</w>", "749": "g,</w>", "750": "too.</w>", "751": "thanked</w>", "752": "thin", "753": "lice</w>", "754": "her", "755": "\u00e2\u20ac</w>", "756": "everyone</w>", "757": "that's</w>", "758": "mia</w>", "759": "fle", "760": "full</w>", "761": "list", "762": "room", "763": "avast</w>", "764": "ss", "765": "lt</w>", "766": "rot</w>", "767": "sw", "768": "ough</w>", "769": "reck", "770": "lots</w>", "771": "tra", "772": "your</w>", "773": "ly.</w>", "774": "plan", "775": "p.</w>", "776": "joh", "777": "other</w>", "778": "otharr</w>", "779": "crew</w>", "780": "sli", "781": "pt</w>", "782": "playing</w>", "783": "ff", "784": "cover", "785": "anch", "786": "friends</w>", "787": "en!</w>", "788": "still</w>", "789": "home.</w>", "790": "wei", "791": "ty", "792": "both</w>", "793": "love</w>", "794": "fore", "795": "ce!</w>", "796": "parrot</w>", "797": "hat", "798": "pho", "799": "blow", "800": "car</w>", "801": "says,</w>", "802": "con", "803": "peop", "804": "oka", "805": "fami", "806": "ske", "807": "lived</w>", "808": "feel</w>", "809": "nin", "810": "lily's</w>", "811": "sad.</w>", "812": "cle</w>", "813": "saf", "814": "\"yes,</w>", "815": "surp", "816": "surpri", "817": "llage</w>", "818": "wn</w>", "819": "main", "820": "sara", "821": "weigh</w>", "822": "ball</w>", "823": "hook", "824": "mon", "825": "oo", "826": "back", "827": "anchor</w>", "828": "bird</w>", "829": "adv", "830": "gard", "831": "salt</w>", "832": "derin'</w>", "833": "mb", "834": "covered</w>", "835": "thunder", "836": "won", "837": "two</w>", "838": "toy", "839": "bear</w>", "840": "ist</w>", "841": "ons!</w>", "842": "r!</w>", "843": "kit", "844": "ches!</w>", "845": "ures</w>", "846": "ye!</w>", "847": "me!</w>", "848": "hook!</w>", "849": "cles!</w>", "850": "st!</w>", "851": "tales.</w>", "852": "sling</w>", "853": "thundering</w>", "854": "batten</w>", "855": "hatches!</w>", "856": "typho", "857": "typhoons!</w>", "858": "blister", "859": "blisterin'</w>", "860": "barnacles!</w>", "861": "cleave</w>", "862": "briske", "863": "brisket!</w>", "864": "compo", "865": "blows!</w>", "866": "flew</w>", "867": "ho.</w>", "868": "floun", "869": "flounderin'</w>", "870": "nincompo", "871": "nincompoop.</w>", "872": "arrr!</w>", "873": "tree</w>", "874": "hoist</w>", "875": "tch</w>", "876": "mizz", "877": "mizzen!</w>", "878": "splice</w>", "879": "mainbra", "880": "mainbrace!</w>", "881": "zed</w>", "882": "called</w>", "883": "tiny</w>", "884": "kept</w>", "885": "ava", "886": "inside</w>", "887": "ry,</w>", "888": "black", "889": "ben", "890": "ft</w>", "891": "off</w>", "892": "explor", "893": "per", "894": "good</w>", "895": "cra", "896": "ve", "897": "sink</w>", "898": "momm", "899": "ve.</w>", "900": "yed</w>", "901": "ple", "902": "prett", "903": "carefu", "904": "take</w>", "905": "him", "906": "it,</w>", "907": "loud</w>", "908": "cks</w>", "909": "one.</w>", "910": "you,</w>", "911": "pillage</w>", "912": "oned</w>", "913": "dra", "914": "nex", "915": "advent", "916": "thre", "917": "beard!</w>", "918": "blackbeard", "919": "blackbeard's</w>", "920": "walked</w>", "921": "ac", "922": "no,</w>", "923": "qui", "924": "yarr!</w>", "925": "avast!</w>", "926": "min", "927": "fir", "928": "ice</w>", "929": "cli", "930": "x.</w>", "931": "gu", "932": "war", "933": "bro", "934": "should</w>", "935": "thought</w>", "936": "reckoned</w>", "937": "laughed</w>", "938": "swa", "939": "ma</w>", "940": "grand", "941": "nice</w>", "942": "also</w>", "943": "du", "944": "win", "945": "butt", "946": "try</w>", "947": "\u00e2\u20ac\u2122", "948": "ght.</w>", "949": "opened</w>", "950": "why</w>", "951": "f.</w>", "952": "fine</w>", "953": "leave</w>", "954": "next</w>", "955": "blu", "956": "look</w>", "957": "or.</w>", "958": "room.</w>", "959": "llow</w>", "960": "smiled.</w>", "961": "handed</w>", "962": "cat</w>", "963": "keep</w>", "964": "box</w>", "965": "kes</w>", "966": "water</w>", "967": "jump", "968": "picked</w>", "969": "good", "970": "dad</w>", "971": "ide</w>", "972": "sma", "973": "noti", "974": "may", "975": "where</w>", "976": "now</w>", "977": "gave</w>", "978": "has</w>", "979": "foo", "980": "ty</w>", "981": "pleas", "982": "kind</w>", "983": "cha", "984": "\"let's</w>", "985": "king</w>", "986": "long</w>", "987": "h</w>", "988": "fly</w>", "989": "now", "990": "fina", "991": "beau", "992": "grog</w>", "993": "lou", "994": "gs</w>", "995": "est</w>", "996": "people</w>", "997": "barnacle</w>", "998": "ship", "999": "\"you</w>", "1000": "mor", "1001": "pict", "1002": "john</w>", "1003": "ter", "1004": "scared.</w>", "1005": "color", "1006": "reme", "1007": "pli", "1008": "dre", "1009": "tree.</w>", "1010": "ars</w>", "1011": "more.</w>", "1012": "maybe</w>", "1013": "you.</w>", "1014": "ange</w>", "1015": "vo", "1016": "tow", "1017": "never</w>", "1018": "nevarr</w>", "1019": "chi", "1020": "cur", "1021": "brea", "1022": "enjo", "1023": "things</w>", "1024": "thin's</w>", "1025": "lucy</w>", "1026": "tou", "1027": "ar.</w>", "1028": "port", "1029": "ent.</w>", "1030": "idea", "1031": "lot</w>", "1032": "end.</w>", "1033": "ld.</w>", "1034": "way</w>", "1035": "\"thank</w>", "1036": "deli", "1037": "import", "1038": "after</w>", "1039": "aftarr</w>", "1040": "up.</w>", "1041": "so,</w>", "1042": "need</w>", "1043": "app", "1044": "ks</w>", "1045": "dump", "1046": "noticed</w>", "1047": "excited</w>", "1048": "ate</w>", "1049": "things.</w>", "1050": "dumps</w>", "1051": "sad</w>", "1052": "sha", "1053": "shou", "1054": "th.</w>", "1055": "tab", "1056": "\"no,</w>", "1057": "house.</w>", "1058": "mom,</w>", "1059": "careful</w>", "1060": "cri", "1061": "re</w>", "1062": "repli", "1063": "ama", "1064": "shiny</w>", "1065": "sun</w>", "1066": "noi", "1067": "wind</w>", "1068": "showed</w>", "1069": "soon</w>", "1070": "show</w>", "1071": "\"i'm</w>", "1072": "swe", "1073": "goodb", "1074": "sorry</w>", "1075": "brok", "1076": "ke.</w>", "1077": "let</w>", "1078": "ter</w>", "1079": "spy</w>", "1080": "spot</w>", "1081": "squ", "1082": "ss.</w>", "1083": "big,</w>", "1084": "bun", "1085": "bbed</w>", "1086": "lls</w>", "1087": "hurt</w>", "1088": "reali", "1089": "gry.</w>", "1090": "arm", "1091": "ds.</w>", "1092": "treasure</w>", "1093": "jan", "1094": "cook", "1095": "beauti", "1096": "curi", "1097": "em", "1098": "asked.</w>", "1099": "animals</w>", "1100": ":</w>", "1101": "watched</w>", "1102": "hard</w>", "1103": "cal", "1104": "\"what</w>", "1105": "great</w>", "1106": "\".</w>", "1107": "been</w>", "1108": "dro", "1109": "stopped</w>", "1110": "lly,</w>", "1111": "it!</w>", "1112": "clos", "1113": "mum</w>", "1114": "sure</w>", "1115": "became</w>", "1116": "ers</w>", "1117": "arrs</w>", "1118": "ovarr</w>", "1119": "le,</w>", "1120": "stay</w>", "1121": "brave</w>", "1122": "wonder", "1123": "yin'</w>", "1124": "toys.</w>", "1125": "dan", "1126": "vi", "1127": "y.\"</w>", "1128": "other.</w>", "1129": "family</w>", "1130": "book", "1131": "et.</w>", "1132": "ers.</w>", "1133": "shore</w>", "1134": "blue</w>", "1135": "pe</w>", "1136": "fro", "1137": "ard.</w>", "1138": "ep", "1139": "stu", "1140": "me.</w>", "1141": "c</w>", "1142": "shiver", "1143": "explore</w>", "1144": "y!\"</w>", "1145": "scur", "1146": "\"he", "1147": "s.\"</w>", "1148": "shin", "1149": "give</w>", "1150": "shar", "1151": "walk</w>", "1152": "toy</w>", "1153": "friend.</w>", "1154": "together</w>", "1155": "togetharr</w>", "1156": "mou", "1157": "able</w>", "1158": "ph", "1159": "ummy</w>", "1160": "important</w>", "1161": "ground.</w>", "1162": "ct</w>", "1163": "play.</w>", "1164": "help.</w>", "1165": "und", "1166": "i'll</w>", "1167": "\"we</w>", "1168": "cab", "1169": "only</w>", "1170": "dded</w>", "1171": "end", "1172": "grabbed</w>", "1173": "park</w>", "1174": "ves</w>", "1175": "inside.</w>", "1176": "pretty</w>", "1177": "back.</w>", "1178": "garden.</w>", "1179": "pon", "1180": "sh.</w>", "1181": "te.</w>", "1182": "tal", "1183": "timmy.</w>", "1184": "smar", "1185": "clean</w>", "1186": "happen", "1187": "see", "1188": "shel", "1189": "am</w>", "1190": "gla", "1191": "bob</w>", "1192": "one", "1193": "idea.</w>", "1194": "coo", "1195": "need", "1196": "sky.</w>", "1197": "again", "1198": "vin'</w>", "1199": "ving</w>", "1200": "sna", "1201": "ong.</w>", "1202": "k,</w>", "1203": "\"it's</w>", "1204": "land</w>", "1205": "\"can</w>", "1206": "rough</w>", "1207": "fini", "1208": "prin", "1209": "ous.</w>", "1210": "se,</w>", "1211": "scared</w>", "1212": "shiverin</w>", "1213": "helped</w>", "1214": "ure.</w>", "1215": "thin'</w>", "1216": "thing</w>", "1217": "ite</w>", "1218": "gras", "1219": "ong</w>", "1220": "sue</w>", "1221": "beg", "1222": "les</w>", "1223": "do.</w>", "1224": "small</w>", "1225": "does</w>", "1226": "treasures</w>", "1227": "sees</w>", "1228": "pret", "1229": "din", "1230": "cla", "1231": "fore</w>", "1232": "before</w>", "1233": "reached</w>", "1234": "realized</w>", "1235": "jumped</w>", "1236": "pie", "1237": "pro", "1238": "ow,</w>", "1239": "while</w>", "1240": "yes</w>", "1241": "finest</w>", "1242": "best</w>", "1243": "port</w>", "1244": "ts.</w>", "1245": "water.</w>", "1246": "leav", "1247": "glad</w>", "1248": "again</w>", "1249": "happi", "1250": "ents</w>", "1251": "toys</w>", "1252": "'re</w>", "1253": "fell</w>", "1254": "calm</w>", "1255": "mber", "1256": "swi", "1257": "ll,</w>", "1258": "three</w>", "1259": "cont", "1260": "\"w", "1261": "home,</w>", "1262": "sorry,</w>", "1263": "woo", "1264": "safe</w>", "1265": "used</w>", "1266": "el</w>", "1267": "butter", "1268": "outside.</w>", "1269": "magi", "1270": "excited.</w>", "1271": "sarah</w>", "1272": "fast</w>", "1273": "time.</w>", "1274": "wait</w>", "1275": "angry.</w>", "1276": "remember", "1277": "l,</w>", "1278": "really</w>", "1279": "self</w>", "1280": "dri", "1281": "ben.</w>", "1282": "and.</w>", "1283": "sometim", "1284": "cooki", "1285": "nodded</w>", "1286": "ji", "1287": "looks</w>", "1288": "car.</w>", "1289": "nay</w>", "1290": "through</w>", "1291": "nois", "1292": "hun", "1293": "says</w>", "1294": "better.</w>", "1295": "prom", "1296": "strange</w>", "1297": "ered</w>", "1298": "amaz", "1299": "began</w>", "1300": "jane</w>", "1301": "look,</w>", "1302": "ped</w>", "1303": "dar", "1304": "fair</w>", "1305": "than</w>", "1306": "ght,</w>", "1307": "pain", "1308": "cor", "1309": "ful.</w>", "1310": "lila</w>", "1311": "read</w>", "1312": "ted.</w>", "1313": "anymore.</w>", "1314": "mate", "1315": "tom.</w>", "1316": "kin", "1317": "pap", "1318": "al.</w>", "1319": "foll", "1320": "hug</w>", "1321": "cabin</w>", "1322": "okay,</w>", "1323": "pira", "1324": "less", "1325": "anna", "1326": "wait", "1327": "eat</w>", "1328": "near</w>", "1329": "waved</w>", "1330": "spoi", "1331": "matey</w>", "1332": "watch</w>", "1333": "st,</w>", "1334": "goodbye</w>", "1335": "friend</w>", "1336": "dais", "1337": "timmy's</w>", "1338": "tast", "1339": "je", "1340": "sorry.</w>", "1341": "m,</w>", "1342": "youn", "1343": "cks.</w>", "1344": "our", "1345": "-</w>", "1346": "bunny</w>", "1347": "itt", "1348": "ball.</w>", "1349": "bui", "1350": "word</w>", "1351": "bit</w>", "1352": "hopped</w>", "1353": "ge.</w>", "1354": "low", "1355": "climb", "1356": "high</w>", "1357": "lily,</w>", "1358": "box.</w>", "1359": "cro", "1360": "ready</w>", "1361": "home</w>", "1362": "she", "1363": "agre", "1364": "ble", "1365": "beh", "1366": "sme", "1367": "windo", "1368": "ons</w>", "1369": "dad.</w>", "1370": "de.</w>", "1371": "lie", "1372": "rabb", "1373": "feast</w>", "1374": "a.</w>", "1375": "daddy</w>", "1376": "kitch", "1377": "wished</w>", "1378": "likes</w>", "1379": "may</w>", "1380": "kin'</w>", "1381": "ely</w>", "1382": "ir.</w>", "1383": "you.\"</w>", "1384": "down.</w>", "1385": "ryin'</w>", "1386": "replied,</w>", "1387": "years</w>", "1388": "listen</w>", "1389": "touch</w>", "1390": "turned</w>", "1391": "lor</w>", "1392": "pick</w>", "1393": "k!</w>", "1394": "\"look,</w>", "1395": "joe</w>", "1396": "at", "1397": "bright</w>", "1398": "\u00e2\u20ac\u2122s</w>", "1399": "cann", "1400": "around.</w>", "1401": "dog.</w>", "1402": "wr", "1403": "\"don't</w>", "1404": "open</w>", "1405": "cannon</w>", "1406": "seas</w>", "1407": "young</w>", "1408": "sle", "1409": "catch</w>", "1410": "held</w>", "1411": "door</w>", "1412": "sky</w>", "1413": "creat", "1414": "e!\"</w>", "1415": "remembered</w>", "1416": "story</w>", "1417": "beautiful</w>", "1418": "set</w>", "1419": "umb", "1420": "animal", "1421": "self.</w>", "1422": "cast", "1423": "il</w>", "1424": "ver.</w>", "1425": "place</w>", "1426": "eyes</w>", "1427": "ined</w>", "1428": "high", "1429": "drea", "1430": "right</w>", "1431": "tu", "1432": "can't</w>", "1433": "tommy</w>", "1434": "arri", "1435": "sat</w>", "1436": "ce,</w>", "1437": "ffer", "1438": "s!\"</w>", "1439": "girl.</w>", "1440": "enjoyed</w>", "1441": "finally,</w>", "1442": "flu", "1443": "ste", "1444": "you're</w>", "1445": "friend,</w>", "1446": "re,</w>", "1447": "truck</w>", "1448": "delici", "1449": "lady</w>", "1450": "own", "1451": "ses</w>", "1452": "ine</w>", "1453": "behind</w>", "1454": "noise.</w>", "1455": "fla", "1456": "warm</w>", "1457": "inu", "1458": "dir", "1459": "continu", "1460": "n.</w>", "1461": "ship's</w>", "1462": "e.\"</w>", "1463": "followed</w>", "1464": "differ", "1465": "oke</w>", "1466": "green</w>", "1467": "gent", "1468": "noise</w>", "1469": "hear</w>", "1470": "out.</w>", "1471": "underst", "1472": "feelin'</w>", "1473": "feeling</w>", "1474": "buy</w>", "1475": "asked,</w>", "1476": "mean</w>", "1477": "an.</w>", "1478": "vide</w>", "1479": "ed!</w>", "1480": "pirate", "1481": "\"wow,</w>", "1482": "goin'</w>", "1483": "going</w>", "1484": "lly.</w>", "1485": "know", "1486": "!\u00e2\u20ac</w>", "1487": "teddy</w>", "1488": "truth</w>", "1489": "stea", "1490": "yellow</w>", "1491": "squir", "1492": "being</w>", "1493": "bein'</w>", "1494": "\"that's</w>", "1495": "needed</w>", "1496": "birds</w>", "1497": "quick", "1498": "worked</w>", "1499": "kid", "1500": "mm", "1501": "ning</w>", "1502": "hands</w>", "1503": "cket</w>", "1504": "coun", "1505": "seen</w>", "1506": "parents</w>", "1507": "pup", "1508": "pres", "1509": ".\u00e2\u20ac</w>", "1510": "filled</w>", "1511": "sometimes</w>", "1512": "wel", "1513": "cti", "1514": "ear", "1515": "squirre", "1516": "boat</w>", "1517": "les!</w>", "1518": "ey</w>", "1519": "ice.</w>", "1520": "y?\"</w>", "1521": "most</w>", "1522": "room</w>", "1523": "tr", "1524": "sn't</w>", "1525": "smile</w>", "1526": "pirate!</w>", "1527": "es,</w>", "1528": "gett", "1529": "backs!</w>", "1530": "voice</w>", "1531": "care</w>", "1532": "ho!</w>", "1533": "continued</w>", "1534": "cand", "1535": "plank!</w>", "1536": "share</w>", "1537": "divide</w>", "1538": "tales!</w>", "1539": "sally</w>", "1540": "spoils</w>", "1541": "someone</w>", "1542": "wants</w>", "1543": "fru", "1544": "bird.</w>", "1545": "cry.</w>", "1546": "\"hello", "1547": "\"it</w>", "1548": "run</w>", "1549": "looking</w>", "1550": "sailor</w>", "1551": "tly</w>", "1552": "scurry</w>", "1553": "ask</w>", "1554": "soft</w>", "1555": "ty.</w>", "1556": "fav", "1557": "sig", "1558": "daisy</w>", "1559": "ever</w>", "1560": "evarr</w>", "1561": "bow", "1562": "stre", "1563": "finally</w>", "1564": "safe.</w>", "1565": "yes.</w>", "1566": "vis", "1567": "ces</w>", "1568": "happily</w>", "1569": "e!</w>", "1570": "grandma</w>", "1571": "mommy,</w>", "1572": "spyin'</w>", "1573": "face.</w>", "1574": "ised</w>", "1575": "spar", "1576": "any</w>", "1577": "poin", "1578": "stayed</w>", "1579": "smile.</w>", "1580": "dinn", "1581": "sed.</w>", "1582": "pen", "1583": "happened.</w>", "1584": "house</w>", "1585": "funny</w>", "1586": "carefully</w>", "1587": "ound,</w>", "1588": "sand", "1589": "head</w>", "1590": "ried</w>", "1591": "few</w>", "1592": "ded.</w>", "1593": "forgot</w>", "1594": "work</w>", "1595": "mb</w>", "1596": "wonderful</w>", "1597": "shelter</w>", "1598": "perfe", "1599": "away,</w>", "1600": "ding</w>", "1601": "lost</w>", "1602": "slow", "1603": "bor", "1604": "yummy</w>", "1605": "cho", "1606": "makes</w>", "1607": "curious</w>", "1608": "toy.</w>", "1609": "walking</w>", "1610": "grin'</w>", "1611": "swag", "1612": "swaggrin'</w>", "1613": "y,\"</w>", "1614": "whar</w>", "1615": "b.</w>", "1616": "pink</w>", "1617": "say</w>", "1618": "ks.</w>", "1619": "molly</w>", "1620": "ballo", "1621": "declare</w>", "1622": "climb</w>", "1623": "climbed</w>", "1624": "ong", "1625": "tea", "1626": "cake</w>", "1627": "gger</w>", "1628": "ble</w>", "1629": "fast", "1630": "rain", "1631": "fish</w>", "1632": "key</w>", "1633": "clothe", "1634": "name</w>", "1635": "pupp", "1636": "ards</w>", "1637": "man.</w>", "1638": "benny</w>", "1639": "together,</w>", "1640": "spla", "1641": "ured</w>", "1642": "left</w>", "1643": "ting</w>", "1644": "billy</w>", "1645": "pas", "1646": "dang", "1647": "fix</w>", "1648": "friends,</w>", "1649": "it.\"</w>", "1650": "\"that</w>", "1651": "thing.</w>", "1652": "suddenly</w>", "1653": "creature</w>", "1654": "sear", "1655": "slide</w>", "1656": "tall</w>", "1657": "ol", "1658": "jum", "1659": "own</w>", "1660": "side,</w>", "1661": "brought</w>", "1662": "\"o", "1663": "door.</w>", "1664": "bad</w>", "1665": "forest.</w>", "1666": "dress</w>", "1667": "e?\"</w>", "1668": "sy</w>", "1669": "head.</w>", "1670": "nod", "1671": "storm</w>", "1672": "rock</w>", "1673": "id</w>", "1674": "zo", "1675": "boy.</w>", "1676": "rotten</w>", "1677": "listened</w>", "1678": "disa", "1679": "ded</w>", "1680": "fur", "1681": "ught</w>", "1682": "hor", "1683": "choo", "1684": "moral</w>", "1685": "tor</w>", "1686": "soun", "1687": "much.</w>", "1688": "er.\"</w>", "1689": "musi", "1690": "fluff", "1691": "wasn't</w>", "1692": "twin", "1693": "picture</w>", "1694": "while,</w>", "1695": "ces.</w>", "1696": "spi", "1697": "row</w>", "1698": "fiel", "1699": "mis", "1700": "towards</w>", "1701": "bel", "1702": "et", "1703": "spark", "1704": "doll</w>", "1705": "worry,</w>", "1706": "dr", "1707": "amy</w>", "1708": "us</w>", "1709": "close</w>", "1710": "was.</w>", "1711": "ben,</w>", "1712": "morn", "1713": "here</w>", "1714": "with", "1715": "ally</w>", "1716": "white</w>", "1717": "sist", "1718": "befo", "1719": "before.</w>", "1720": "jump</w>", "1721": "\"hello,</w>", "1722": "red.</w>", "1723": "hug.</w>", "1724": "pulled</w>", "1725": "\"but</w>", "1726": "animals.</w>", "1727": "runs</w>", "1728": "ny.</w>", "1729": "it?\"</w>", "1730": "mommy.</w>", "1731": "at.</w>", "1732": "bed</w>", "1733": "ons.</w>", "1734": "ang</w>", "1735": "sam", "1736": "pra", "1737": "frog</w>", "1738": "twi", "1739": "fair", "1740": "that", "1741": "far</w>", "1742": "up,</w>", "1743": "friendly</w>", "1744": "hand.</w>", "1745": "dis", "1746": "might</w>", "1747": "umm", "1748": "tim.</w>", "1749": "\"this</w>", "1750": "child", "1751": "ok,</w>", "1752": "ground</w>", "1753": "deep</w>", "1754": "drag", "1755": "prince", "1756": "top</w>", "1757": "promised</w>", "1758": "smartly</w>", "1759": "quickly</w>", "1760": "mama</w>", "1761": "there.</w>", "1762": "que", "1763": "fast.</w>", "1764": "shared</w>", "1765": "butterfly</w>", "1766": "max.</w>", "1767": "mp", "1768": "jim", "1769": "belie", "1770": "sing", "1771": "sca", "1772": "answ", "1773": "d!</w>", "1774": "ught", "1775": "dark</w>", "1776": "grate", "1777": "farm", "1778": "tarr</w>", "1779": "ki", "1780": "snow", "1781": "cars</w>", "1782": "cky</w>", "1783": "expla", "1784": "met</w>", "1785": "say,</w>", "1786": "sweet</w>", "1787": "prou", "1788": "ig", "1789": "better</w>", "1790": "bettarr</w>", "1791": "ele", "1792": "il.</w>", "1793": "hands.</w>", "1794": "surprised</w>", "1795": "family.</w>", "1796": "forest</w>", "1797": "childr", "1798": "such</w>", "1799": "ep.</w>", "1800": "pea", "1801": "lun", "1802": "nice.</w>", "1803": "blan", "1804": "kis", "1805": "favor", "1806": "tom,</w>", "1807": "tion</w>", "1808": "bber</w>", "1809": "special.</w>", "1810": "there,</w>", "1811": "ze</w>", "1812": "kitchen.</w>", "1813": "danger", "1814": "adventure.</w>", "1815": "thinks</w>", "1816": "wise</w>", "1817": "fier", "1818": "fea", "1819": "uni", "1820": "il", "1821": "mr", "1822": "turn", "1823": "bed.</w>", "1824": "lif", "1825": "park,</w>", "1826": "me?\"</w>", "1827": "hear", "1828": "nodded.</w>", "1829": "floor.</w>", "1830": "different</w>", "1831": "show", "1832": "cry", "1833": "blanke", "1834": "screa", "1835": "light</w>", "1836": "acro", "1837": "it!\"</w>", "1838": "table.</w>", "1839": "mil", "1840": "work.</w>", "1841": "dom</w>", "1842": "hold", "1843": "night</w>", "1844": "max", "1845": "pati", "1846": "ying</w>", "1847": "havin'</w>", "1848": "having</w>", "1849": "od</w>", "1850": "wis", "1851": "way.</w>", "1852": "rest</w>", "1853": "magica", "1854": "\"maybe</w>", "1855": "disapp", "1856": "soon,</w>", "1857": "heav", "1858": "slide.</w>", "1859": "nu", "1860": "wou", "1861": "yard.</w>", "1862": "zy</w>", "1863": "careful.</w>", "1864": "game", "1865": "hole</w>", "1866": "across</w>", "1867": "jill</w>", "1868": "scared,</w>", "1869": "pretend</w>", "1870": "explo", "1871": "patch</w>", "1872": "bear.</w>", "1873": "around,</w>", "1874": "stra", "1875": "try", "1876": "delicious</w>", "1877": "sit</w>", "1878": "lion</w>", "1879": "\"su", "1880": "cut</w>", "1881": "move</w>", "1882": "threw</w>", "1883": "mag", "1884": "under</w>", "1885": "undarr</w>", "1886": "stepped</w>", "1887": "food.</w>", "1888": "grass.</w>", "1889": "hot</w>", "1890": "fierce</w>", "1891": "grandma", "1892": "far", "1893": "stick</w>", "1894": "treasured</w>", "1895": "wher", "1896": "cold</w>", "1897": "ships</w>", "1898": "monst", "1899": "please</w>", "1900": "rabbit</w>", "1901": "lubber</w>", "1902": "believe</w>", "1903": "draw</w>", "1904": "bird", "1905": "join</w>", "1906": "wear</w>", "1907": "night,</w>", "1908": "\u00e2\u20ac\u2122t</w>", "1909": "wee", "1910": "nei", "1911": "favorite</w>", "1912": "fox</w>", "1913": "lie</w>", "1914": "welcom", "1915": "lov", "1916": "gather</w>", "1917": "cour", "1918": "slowly</w>", "1919": "\"hi", "1920": "everywhere</w>", "1921": "ough", "1922": "magical</w>", "1923": "without</w>", "1924": "making</w>", "1925": "by.</w>", "1926": "sad,</w>", "1927": "table</w>", "1928": "ted,</w>", "1929": "\"mom,</w>", "1930": "fire", "1931": "sam.</w>", "1932": "wisdom</w>", "1933": "pow", "1934": "game</w>", "1935": "luc", "1936": "s,\"</w>", "1937": "world</w>", "1938": "long", "1939": "baske", "1940": "event", "1941": "go.</w>", "1942": "swing", "1943": "ride</w>", "1944": "face</w>", "1945": "john", "1946": "trea", "1947": "pet</w>", "1948": "squirrel</w>", "1949": "flowers.</w>", "1950": "c.</w>", "1951": "dy.</w>", "1952": "broken</w>", "1953": "hoped</w>", "1954": "waited</w>", "1955": "s?\"</w>", "1956": "har", "1957": "cray", "1958": "finished</w>", "1959": "too,</w>", "1960": "now,</w>", "1961": "poli", "1962": "feels</w>", "1963": "must</w>", "1964": "rememb", "1965": "ser", "1966": "wri", "1967": "wouldn't</w>", "1968": "comfor", "1969": "eventu", "1970": "ck,</w>", "1971": "eyes.</w>", "1972": "himself</w>", "1973": "\"why</w>", "1974": "ten</w>", "1975": "ent,</w>", "1976": "chee", "1977": "neigh", "1978": "colorful</w>", "1979": "?\u00e2\u20ac</w>", "1980": "bag</w>", "1981": "ens</w>", "1982": "spa", "1983": "tted</w>", "1984": "voice.</w>", "1985": "\"okay,</w>", "1986": "him,</w>", "1987": "lett", "1988": "them", "1989": "brown</w>", "1990": "thi", "1991": "box", "1992": "reach</w>", "1993": "wrong.</w>", "1994": "cid", "1995": "ski", "1996": "coll", "1997": "doll", "1998": "cane", "1999": "colors</w>", "2000": "duck</w>", "2001": "mary</w>", "2002": "blocks</w>", "2003": "rat</w>", "2004": "ban", "2005": "now.</w>", "2006": "watch", "2007": "accid", "2008": "buc", "2009": "buccane", "2010": "hone", "2011": "cool</w>", "2012": "first</w>", "2013": "lla</w>", "2014": "bad.</w>", "2015": "draw", "2016": "ses.</w>", "2017": "agreed</w>", "2018": "jour", "2019": "mean", "2020": "learn</w>", "2021": "asks.</w>", "2022": "closed</w>", "2023": "sou", "2024": "drove</w>", "2025": "perfect</w>", "2026": "swagger</w>", "2027": "good.</w>", "2028": "cried</w>", "2029": "pushed</w>", "2030": "jen", "2031": "turn</w>", "2032": "trees</w>", "2033": "puppy</w>", "2034": "pictures</w>", "2035": "ures.</w>", "2036": "hat</w>", "2037": "pond.</w>", "2038": "visit</w>", "2039": "happy,</w>", "2040": "another</w>", "2041": "anotharr</w>", "2042": "surprise</w>", "2043": "listen.</w>", "2044": "arrived</w>", "2045": "fish.</w>", "2046": "shouted</w>", "2047": "bran", "2048": "\"ok,</w>", "2049": "same</w>", "2050": "start</w>", "2051": "rain</w>", "2052": "enough</w>", "2053": "lea", "2054": "jimmy</w>", "2055": "gge", "2056": "stori", "2057": "lth", "2058": "swee", "2059": "trou", "2060": "instea", "2061": "cried.</w>", "2062": "eleph", "2063": "stop</w>", "2064": "closer</w>", "2065": "closarr</w>", "2066": "laughed.</w>", "2067": "hide</w>", "2068": "\"mommy,</w>", "2069": "me,</w>", "2070": "grass</w>", "2071": "fen", "2072": "ya", "2073": "clean", "2074": "lar", "2075": "pe.</w>", "2076": "comin'</w>", "2077": "coming</w>", "2078": "off", "2079": "tin'</w>", "2080": "think</w>", "2081": "broke</w>", "2082": "anna.</w>", "2083": "reckon</w>", "2084": "black</w>", "2085": "what's</w>", "2086": "bob", "2087": "kne", "2088": "secre", "2089": "sup", "2090": "grateful</w>", "2091": "sign</w>", "2092": "ounta", "2093": "pond</w>", "2094": "cream</w>", "2095": "fire</w>", "2096": "stin'</w>", "2097": "build</w>", "2098": "hard.</w>", "2099": "post</w>", "2100": "your", "2101": "ter.</w>", "2102": "pes</w>", "2103": "curious.</w>", "2104": "hold</w>", "2105": "brave.</w>", "2106": "clou", "2107": "clapped</w>", "2108": "excited!</w>", "2109": "lesson</w>", "2110": "done</w>", "2111": "leaves</w>", "2112": "place.</w>", "2113": "\"sure,</w>", "2114": "row", "2115": "dadd", "2116": "t.\"</w>", "2117": "cket.</w>", "2118": "happy!</w>", "2119": "matt", "2120": "bow</w>", "2121": "with.</w>", "2122": "purp", "2123": "fluffy</w>", "2124": "tch", "2125": "when", "2126": "fish", "2127": "ther.</w>", "2128": "shook</w>", "2129": "sted</w>", "2130": "daught", "2131": "dist", "2132": "tion.</w>", "2133": "garden</w>", "2134": "store</w>", "2135": "pretend", "2136": "nor", "2137": "moved</w>", "2138": "seemed</w>", "2139": "sing</w>", "2140": "sin'</w>", "2141": "wn.</w>", "2142": "yumm", "2143": "sleep", "2144": "e's</w>", "2145": "mitt", "2146": "lesson.</w>", "2147": "woke</w>", "2148": "dropped</w>", "2149": "hugs</w>", "2150": "ps</w>", "2151": "boun", "2152": "sitt", "2153": "you!\"</w>", "2154": "sang</w>", "2155": "her,</w>", "2156": "dog", "2157": "window</w>", "2158": "log</w>", "2159": "stood</w>", "2160": "ide", "2161": "stop", "2162": "piece</w>", "2163": "sound</w>", "2164": "ing?\"</w>", "2165": "himself.</w>", "2166": "spot.</w>", "2167": "eat.</w>", "2168": "wet</w>", "2169": "though</w>", "2170": "lin'</w>", "2171": "bath", "2172": "ase</w>", "2173": "schoo", "2174": "again,</w>", "2175": "my", "2176": "enjoy</w>", "2177": "scary</w>", "2178": "late.</w>", "2179": "caught</w>", "2180": "toys,</w>", "2181": "zi", "2182": "boys</w>", "2183": "swam</w>", "2184": "teach", "2185": "mummy</w>", "2186": "long.</w>", "2187": "takes</w>", "2188": "hit</w>", "2189": "cookies</w>", "2190": "tun", "2191": "d.\"</w>", "2192": "smiled,</w>", "2193": "adventure</w>", "2194": "world.</w>", "2195": "sol", "2196": "king.</w>", "2197": "scurryin'</w>", "2198": "\"you're</w>", "2199": "birth", "2200": "\"oh</w>", "2201": "gru", "2202": "angry</w>", "2203": "cir", "2204": "ble.</w>", "2205": "ft.</w>", "2206": "herself</w>", "2207": "one,</w>", "2208": "year</w>", "2209": "explore.</w>", "2210": "cat.</w>", "2211": "stuck</w>", "2212": "hurt.</w>", "2213": "who", "2214": "said:</w>", "2215": "less</w>", "2216": "running</w>", "2217": "follow</w>", "2218": "afra", "2219": "food</w>", "2220": "ant.</w>", "2221": "sunny</w>", "2222": "grub</w>", "2223": "inter", "2224": "son</w>", "2225": "sun.</w>", "2226": "amazed</w>", "2227": "bil", "2228": "understand</w>", "2229": "wondered</w>", "2230": "land", "2231": "att", "2232": "bug</w>", "2233": "game.</w>", "2234": "o.</w>", "2235": "h,</w>", "2236": "emma</w>", "2237": "ch,</w>", "2238": "\"do</w>", "2239": "soon.</w>", "2240": "flowers</w>", "2241": "flowarrs</w>", "2242": "mouse</w>", "2243": "bilge</w>", "2244": "corn", "2245": "cake.</w>", "2246": "mess.</w>", "2247": "mr.</w>", "2248": "ers,</w>", "2249": "blocks.</w>", "2250": "thou", "2251": "fing", "2252": "hair</w>", "2253": "el.</w>", "2254": "truck.</w>", "2255": "first,</w>", "2256": "silly</w>", "2257": "fairy</w>", "2258": "am", "2259": "pill", "2260": "morning,</w>", "2261": "eas", "2262": "ener", "2263": "book</w>", "2264": "turns</w>", "2265": "wra", "2266": "swimm", "2267": "intere", "2268": "gettin'</w>", "2269": "getting</w>", "2270": "gigg", "2271": "forget</w>", "2272": "e,\"</w>", "2273": "onto</w>", "2274": "journe", "2275": "set.</w>", "2276": "imag", "2277": "help,</w>", "2278": "finish", "2279": "okay.</w>", "2280": "swim</w>", "2281": "comes</w>", "2282": "kind.</w>", "2283": "enta", "2284": "pull</w>", "2285": "book.</w>", "2286": "train</w>", "2287": "gone.</w>", "2288": "\"of</w>", "2289": "touched</w>", "2290": "t!\"</w>", "2291": "craw", "2292": "lin", "2293": "xed</w>", "2294": "fly.</w>", "2295": "sunshin", "2296": "mom's</w>", "2297": "goodby", "2298": "bigg", "2299": "whist", "2300": "ing!</w>", "2301": "cce", "2302": "laugh</w>", "2303": "bru", "2304": "purple</w>", "2305": "succe", "2306": "cer", "2307": "cheer", "2308": "promi", "2309": "fun!</w>", "2310": "magic</w>", "2311": "princess</w>", "2312": "right.</w>", "2313": "fight", "2314": "gives</w>", "2315": "3</w>", "2316": "else</w>", "2317": "trading</w>", "2318": "self", "2319": "bubb", "2320": "shes</w>", "2321": "whe", "2322": "pudd", "2323": "llin'</w>", "2324": "lling</w>", "2325": "flower</w>", "2326": "flowarr</w>", "2327": "arriv", "2328": "jun", "2329": "jack.</w>", "2330": "accidenta", "2331": "accidentally</w>", "2332": "dance</w>", "2333": "ven</w>", "2334": "proud.</w>", "2335": "clothes</w>", "2336": "moment</w>", "2337": "sau", "2338": "door", "2339": "ious</w>", "2340": "explained</w>", "2341": "baby</w>", "2342": "house,</w>", "2343": "puts</w>", "2344": "colle", "2345": "\"lily,</w>", "2346": "gentle</w>", "2347": "ve,</w>", "2348": "won't</w>", "2349": "emi", "2350": "break</w>", "2351": "spid", "2352": "dly</w>", "2353": "in's</w>", "2354": "wea", "2355": "tired.</w>", "2356": "hair", "2357": "smiles</w>", "2358": "sandwi", "2359": "bee</w>", "2360": "inside,</w>", "2361": "strong.</w>", "2362": "ve-", "2363": "pointed</w>", "2364": "med.</w>", "2365": "inv", "2366": "bear", "2367": "castle</w>", "2368": "huge</w>", "2369": "carro", "2370": "strong</w>", "2371": "heave-", "2372": "heave-ho</w>", "2373": "val", "2374": "light", "2375": "proble", "2376": "din'</w>", "2377": "mach", "2378": "dinner.</w>", "2379": "bit", "2380": "health", "2381": "sound.</w>", "2382": "boo", "2383": "wom", "2384": "ctor</w>", "2385": "bought</w>", "2386": "let", "2387": "lli", "2388": "build", "2389": "playing.</w>", "2390": "gs.</w>", "2391": "pieces</w>", "2392": "woods.</w>", "2393": "pretty.</w>", "2394": "grow", "2395": "bite</w>", "2396": "ged</w>", "2397": "stick", "2398": "orange</w>", "2399": "animal</w>", "2400": "slide", "2401": "dragon</w>", "2402": "near", "2403": "sammy</w>", "2404": "herself.</w>", "2405": "doll.</w>", "2406": "store.</w>", "2407": "mia", "2408": "eag", "2409": "ley</w>", "2410": "room,</w>", "2411": "dream", "2412": "flower.</w>", "2413": "wish</w>", "2414": "me.\"</w>", "2415": "prote", "2416": "sco", "2417": "bur", "2418": "sand</w>", "2419": "along</w>", "2420": "mp</w>", "2421": "colou", "2422": "shouted.</w>", "2423": "ings.</w>", "2424": "fron", "2425": "tter", "2426": "which</w>", "2427": "tom's</w>", "2428": "old.</w>", "2429": "org", "2430": "air.</w>", "2431": "monkey</w>", "2432": "them,</w>", "2433": "smiles.</w>", "2434": "joy.</w>", "2435": "cele", "2436": "ank</w>", "2437": "ver,</w>", "2438": "body</w>", "2439": "respe", "2440": "hill.</w>", "2441": "tail.</w>", "2442": "practi", "2443": "worri", "2444": "sur", "2445": "paint</w>", "2446": "minu", "2447": "real</w>", "2448": "valu", "2449": "wear", "2450": "alone.</w>", "2451": "fit</w>", "2452": "spotted</w>", "2453": "admi", "2454": "smelled</w>", "2455": "hope</w>", "2456": "talked</w>", "2457": "all", "2458": "off.</w>", "2459": "tie</w>", "2460": "cheered</w>", "2461": "these</w>", "2462": "owl</w>", "2463": "puzz", "2464": "myster", "2465": "confu", "2466": "organi", "2467": "hill</w>", "2468": "back,</w>", "2469": "p,</w>", "2470": "heavy</w>", "2471": "berri", "2472": "tim's</w>", "2473": "danc", "2474": "strang", "2475": "ball", "2476": "window.</w>", "2477": "fun,</w>", "2478": "board</w>", "2479": "glas", "2480": "fellow</w>", "2481": "bowl</w>", "2482": "laugh.</w>", "2483": "everythin'</w>", "2484": "everything</w>", "2485": "'ll</w>", "2486": "brother</w>", "2487": "ely.</w>", "2488": "you?\"</w>", "2489": "playing,</w>", "2490": "no.</w>", "2491": "ling.</w>", "2492": "stru", "2493": "done,</w>", "2494": "asle", "2495": "music</w>", "2496": "er!\"</w>", "2497": "searched</w>", "2498": "stri", "2499": "tryin'</w>", "2500": "ful", "2501": "trying</w>", "2502": "beach.</w>", "2503": "questi", "2504": "front</w>", "2505": "rid", "2506": "move.</w>", "2507": "doctor</w>", "2508": "\"the</w>", "2509": "fli", "2510": "mel", "2511": "keep", "2512": "hungry.</w>", "2513": "race</w>", "2514": "whole</w>", "2515": "n\u00e2\u20ac\u2122t</w>", "2516": "mia.</w>", "2517": "bott", "2518": "rock.</w>", "2519": "sounds</w>", "2520": "loves</w>", "2521": "lit</w>", "2522": "lucy.</w>", "2523": "bike</w>", "2524": "jenny</w>", "2525": "ran", "2526": "shouted,</w>", "2527": "everywher", "2528": "lay</w>", "2529": "smart</w>", "2530": "ins</w>", "2531": "pic", "2532": "hung", "2533": "impres", "2534": "creati", "2535": "rolled</w>", "2536": "beat</w>", "2537": "arrived,</w>", "2538": "lucky</w>", "2539": "oce", "2540": "picni", "2541": "something.</w>", "2542": "colour", "2543": "living</w>", "2544": "livin'</w>", "2545": "this", "2546": "sne", "2547": "\"look</w>", "2548": "busy</w>", "2549": "reli", "2550": "enough", "2551": "ings</w>", "2552": "goes</w>", "2553": "tee", "2554": "andy</w>", "2555": "ws</w>", "2556": "ary</w>", "2557": "spent</w>", "2558": "jar</w>", "2559": "end,</w>", "2560": "walk.</w>", "2561": "mous</w>", "2562": "tight", "2563": "beach</w>", "2564": "\"hi,</w>", "2565": "chair</w>", "2566": "castle.</w>", "2567": "peace", "2568": "sharp</w>", "2569": "ez", "2570": "eventually</w>", "2571": "mess", "2572": "jim</w>", "2573": "joy</w>", "2574": "w,</w>", "2575": "meas", "2576": "bright", "2577": "jack", "2578": "pretended</w>", "2579": "kids</w>", "2580": "tomor", "2581": "hungry</w>", "2582": "that?\"</w>", "2583": "medi", "2584": "people.</w>", "2585": "hole.</w>", "2586": "floor</w>", "2587": "twee", "2588": "mista", "2589": "tail</w>", "2590": "tor", "2591": "sigh", "2592": "words</w>", "2593": "ited</w>", "2594": "forgive</w>", "2595": "smo", "2596": "pan", "2597": "soa", "2598": "trees.</w>", "2599": "out,</w>", "2600": "girl", "2601": "hopp", "2602": "roa", "2603": "low</w>", "2604": "choco", "2605": "mounta", "2606": "could.</w>", "2607": "shir", "2608": "that,</w>", "2609": "sarah", "2610": "candy</w>", "2611": "blanket</w>", "2612": "worried</w>", "2613": "thank", "2614": "boat.</w>", "2615": "parley</w>", "2616": "balloon</w>", "2617": "pin", "2618": "tries</w>", "2619": "children</w>", "2620": "danced</w>", "2621": "air</w>", "2622": "dress.</w>", "2623": "fun!\"</w>", "2624": "ladd", "2625": "robo", "2626": "paper.</w>", "2627": "\"come</w>", "2628": "buccaneers</w>", "2629": "brid", "2630": "nau", "2631": "mark</w>", "2632": "naughty</w>", "2633": "emily</w>", "2634": "books.</w>", "2635": "throw</w>", "2636": "night.</w>", "2637": "woman</w>", "2638": "round</w>", "2639": "dad,</w>", "2640": "er!</w>", "2641": "else.</w>", "2642": "finished,</w>", "2643": "neck", "2644": "chick", "2645": "jen</w>", "2646": "inde", "2647": "cup", "2648": "elephant</w>", "2649": "in,</w>", "2650": "dry</w>", "2651": "chased</w>", "2652": "secret</w>", "2653": "poo", "2654": "apple</w>", "2655": "emb", "2656": "share.</w>", "2657": "embarr", "2658": "embarras", "2659": "wore</w>", "2660": "ka", "2661": "to.</w>", "2662": "ie</w>", "2663": "paper</w>", "2664": "paparr</w>", "2665": "part</w>", "2666": "\"hey,</w>", "2667": "grab</w>", "2668": "did.</w>", "2669": "eng", "2670": "rain.</w>", "2671": "idea</w>", "2672": "neckla", "2673": "cool", "2674": "down,</w>", "2675": "loud", "2676": "please,</w>", "2677": "mone", "2678": "eared</w>", "2679": "new.</w>", "2680": "quiet</w>", "2681": "me!\"</w>", "2682": "sof", "2683": "relie", "2684": "kids.</w>", "2685": "incre", "2686": "banan", "2687": "spr", "2688": "welcome,</w>", "2689": "dne", "2690": "\"we", "2691": "spra", "2692": "pile</w>", "2693": "cars.</w>", "2694": "bottle</w>", "2695": "hard", "2696": "twins.</w>", "2697": "gar", "2698": "dog,</w>", "2699": "learn", "2700": "ctor", "2701": "\"what's</w>", "2702": "ke,</w>", "2703": "anything</w>", "2704": "anythin'</w>", "2705": "yell", "2706": "cry</w>", "2707": "lot.</w>", "2708": "un</w>", "2709": "top.</w>", "2710": "lovely</w>", "2711": "oin", "2712": "bucket</w>", "2713": "gather", "2714": "king,</w>", "2715": "ine.</w>", "2716": "celebra", "2717": "tree,</w>", "2718": "ong,</w>", "2719": "shoes</w>", "2720": "stories</w>", "2721": "wall.</w>", "2722": "days</w>", "2723": "coura", "2724": "outside,</w>", "2725": "talk</w>", "2726": "sa</w>", "2727": "ter,</w>", "2728": "tired</w>", "2729": "helping</w>", "2730": "helpin'</w>", "2731": "egg", "2732": "yard</w>", "2733": "others.</w>", "2734": "goodbye.</w>", "2735": "job", "2736": "emp", "2737": "mea", "2738": "lake.</w>", "2739": "phone</w>", "2740": "stand", "2741": "icy</w>", "2742": "wide</w>", "2743": "say.</w>", "2744": "clu", "2745": "first.</w>", "2746": "pee", "2747": "jung", "2748": "deter", "2749": "patient</w>", "2750": "person</w>", "2751": "giant</w>", "2752": "call</w>", "2753": "furry</w>", "2754": "d!\"</w>", "2755": "cannot</w>", "2756": "lar</w>", "2757": "ones</w>", "2758": "shiny.</w>", "2759": "okay</w>", "2760": "hair.</w>", "2761": "flyin'</w>", "2762": "flying</w>", "2763": "tasted</w>", "2764": "after.</w>", "2765": "determin", "2766": "blew</w>", "2767": "ves.</w>", "2768": "dolls</w>", "2769": "finish</w>", "2770": "forever.</w>", "2771": "ing!\"</w>", "2772": "decor", "2773": "stair", "2774": "ents.</w>", "2775": "excited,</w>", "2776": "read", "2777": "push</w>", "2778": "day", "2779": "tv", "2780": "dirty</w>", "2781": "pri", "2782": "spread</w>", "2783": "lake</w>", "2784": "disappoin", "2785": "cozy</w>", "2786": "colors.</w>", "2787": "hour", "2788": "all.</w>", "2789": "backyard.</w>", "2790": "leaves.</w>", "2791": "together.\"</w>", "2792": "wild</w>", "2793": "surprise.</w>", "2794": "hears</w>", "2795": "cold.</w>", "2796": "arms</w>", "2797": "tharr</w>", "2798": "jake</w>", "2799": "pped.</w>", "2800": "fall</w>", "2801": "fight</w>", "2802": "cke", "2803": "age</w>", "2804": "cute</w>", "2805": "gone</w>", "2806": "meado", "2807": "fra", "2808": "sara.</w>", "2809": "vege", "2810": "gener", "2811": "\"my</w>", "2812": "sci", "2813": "safe", "2814": "promise</w>", "2815": "ssed</w>", "2816": "pl", "2817": "almost</w>", "2818": "ben's</w>", "2819": "tomm", "2820": "ked,</w>", "2821": "stars</w>", "2822": "course,</w>", "2823": "ous,</w>", "2824": "late</w>", "2825": "meet</w>", "2826": "asha", "2827": "balan", "2828": "ward", "2829": "wave</w>", "2830": "mittens</w>", "2831": "hat.</w>", "2832": "here,</w>", "2833": "know.</w>", "2834": "teach</w>", "2835": "tells</w>", "2836": "wash</w>", "2837": "that.</w>", "2838": "ld,</w>", "2839": "cy", "2840": "interest", "2841": "missed</w>", "2842": "om.</w>", "2843": "grandma.</w>", "2844": "gall", "2845": "large</w>", "2846": "more", "2847": "hon", "2848": "kite</w>", "2849": "landed</w>", "2850": "pot</w>", "2851": "wol", "2852": "sam,</w>", "2853": "ob", "2854": "light.</w>", "2855": "hid</w>", "2856": "star</w>", "2857": "sit", "2858": "knocked</w>", "2859": "tight.</w>", "2860": "happened</w>", "2861": "games</w>", "2862": "anything.</w>", "2863": "worried.</w>", "2864": "carried</w>", "2865": "crying.</w>", "2866": "protect</w>", "2867": "surprise", "2868": "soup</w>", "2869": "doin'</w>", "2870": "doing</w>", "2871": "noises</w>", "2872": "sweeti", "2873": "save</w>", "2874": "too.\"</w>", "2875": "look.</w>", "2876": "whisp", "2877": "xi", "2878": "frustra", "2879": "plane</w>", "2880": "air", "2881": "replied</w>", "2882": "field</w>", "2883": "hello", "2884": "relieved</w>", "2885": "spit", "2886": "lila", "2887": "\u00e2\u20ac\u0153i</w>", "2888": "circle", "2889": "twins</w>", "2890": "lisa</w>", "2891": "hospit", "2892": "go,</w>", "2893": "upset</w>", "2894": "mean.</w>", "2895": "pizz", "2896": "power", "2897": "tight</w>", "2898": "live</w>", "2899": "could", "2900": "ful,</w>", "2901": "cookies.</w>", "2902": "surprised.</w>", "2903": "\"good</w>", "2904": "grow</w>", "2905": "usu", "2906": "radi", "2907": "kitchen</w>", "2908": "galley</w>", "2909": "let\u00e2\u20ac\u2122s</w>", "2910": "ked.</w>", "2911": "basket</w>", "2912": "hidd", "2913": "dangerous.</w>", "2914": "beautiful.</w>",
[...]
